#ifndef __G_TFLM_MODEL_H
#define __G_TFLM_MODEL_H
const unsigned char g_tflm_model[] = {
    0x20, 0x00, 0x00, 0x00, 0x54, 0x46, 0x4c, 0x33, 0x00, 0x00, 0x00, 0x00, 0x14, 0x00, 0x20, 0x00,
    0x1c, 0x00, 0x18, 0x00, 0x14, 0x00, 0x10, 0x00, 0x0c, 0x00, 0x00, 0x00, 0x08, 0x00, 0x04, 0x00,
    0x14, 0x00, 0x00, 0x00, 0x1c, 0x00, 0x00, 0x00, 0x88, 0x00, 0x00, 0x00, 0xe0, 0x00, 0x00, 0x00,
    0xd0, 0x13, 0x00, 0x00, 0xe0, 0x13, 0x00, 0x00, 0x28, 0x39, 0x00, 0x00, 0x03, 0x00, 0x00, 0x00,
    0x01, 0x00, 0x00, 0x00, 0x10, 0x00, 0x00, 0x00, 0x00, 0x00, 0x0a, 0x00, 0x10, 0x00, 0x0c, 0x00,
    0x08, 0x00, 0x04, 0x00, 0x0a, 0x00, 0x00, 0x00, 0x0c, 0x00, 0x00, 0x00, 0x1c, 0x00, 0x00, 0x00,
    0x34, 0x00, 0x00, 0x00, 0x0f, 0x00, 0x00, 0x00, 0x73, 0x65, 0x72, 0x76, 0x69, 0x6e, 0x67, 0x5f,
    0x64, 0x65, 0x66, 0x61, 0x75, 0x6c, 0x74, 0x00, 0x01, 0x00, 0x00, 0x00, 0x04, 0x00, 0x00, 0x00,
    0xa0, 0xff, 0xff, 0xff, 0x1a, 0x00, 0x00, 0x00, 0x04, 0x00, 0x00, 0x00, 0x03, 0x00, 0x00, 0x00,
    0x74, 0x6f, 0x70, 0x00, 0x01, 0x00, 0x00, 0x00, 0x04, 0x00, 0x00, 0x00, 0xbe, 0xec, 0xff, 0xff,
    0x04, 0x00, 0x00, 0x00, 0x07, 0x00, 0x00, 0x00, 0x69, 0x6e, 0x70, 0x75, 0x74, 0x5f, 0x31, 0x00,
    0x02, 0x00, 0x00, 0x00, 0x34, 0x00, 0x00, 0x00, 0x04, 0x00, 0x00, 0x00, 0xdc, 0xff, 0xff, 0xff,
    0x1d, 0x00, 0x00, 0x00, 0x04, 0x00, 0x00, 0x00, 0x13, 0x00, 0x00, 0x00, 0x43, 0x4f, 0x4e, 0x56,
    0x45, 0x52, 0x53, 0x49, 0x4f, 0x4e, 0x5f, 0x4d, 0x45, 0x54, 0x41, 0x44, 0x41, 0x54, 0x41, 0x00,
    0x08, 0x00, 0x0c, 0x00, 0x08, 0x00, 0x04, 0x00, 0x08, 0x00, 0x00, 0x00, 0x1c, 0x00, 0x00, 0x00,
    0x04, 0x00, 0x00, 0x00, 0x13, 0x00, 0x00, 0x00, 0x6d, 0x69, 0x6e, 0x5f, 0x72, 0x75, 0x6e, 0x74,
    0x69, 0x6d, 0x65, 0x5f, 0x76, 0x65, 0x72, 0x73, 0x69, 0x6f, 0x6e, 0x00, 0x1e, 0x00, 0x00, 0x00,
    0xec, 0x12, 0x00, 0x00, 0xe4, 0x12, 0x00, 0x00, 0xcc, 0x12, 0x00, 0x00, 0xac, 0x12, 0x00, 0x00,
    0x4c, 0x12, 0x00, 0x00, 0x9c, 0x11, 0x00, 0x00, 0x8c, 0x0c, 0x00, 0x00, 0xfc, 0x0b, 0x00, 0x00,
    0xcc, 0x0a, 0x00, 0x00, 0x3c, 0x0a, 0x00, 0x00, 0x2c, 0x07, 0x00, 0x00, 0xbc, 0x06, 0x00, 0x00,
    0xd4, 0x05, 0x00, 0x00, 0x64, 0x05, 0x00, 0x00, 0xd4, 0x03, 0x00, 0x00, 0x84, 0x03, 0x00, 0x00,
    0xe4, 0x02, 0x00, 0x00, 0x94, 0x02, 0x00, 0x00, 0xd4, 0x00, 0x00, 0x00, 0xcc, 0x00, 0x00, 0x00,
    0xc4, 0x00, 0x00, 0x00, 0xbc, 0x00, 0x00, 0x00, 0xb4, 0x00, 0x00, 0x00, 0xac, 0x00, 0x00, 0x00,
    0xa4, 0x00, 0x00, 0x00, 0x9c, 0x00, 0x00, 0x00, 0x94, 0x00, 0x00, 0x00, 0x8c, 0x00, 0x00, 0x00,
    0x6c, 0x00, 0x00, 0x00, 0x04, 0x00, 0x00, 0x00, 0xaa, 0xed, 0xff, 0xff, 0x04, 0x00, 0x00, 0x00,
    0x58, 0x00, 0x00, 0x00, 0x0c, 0x00, 0x00, 0x00, 0x08, 0x00, 0x0e, 0x00, 0x08, 0x00, 0x04, 0x00,
    0x08, 0x00, 0x00, 0x00, 0x10, 0x00, 0x00, 0x00, 0x28, 0x00, 0x00, 0x00, 0x00, 0x00, 0x06, 0x00,
    0x08, 0x00, 0x04, 0x00, 0x06, 0x00, 0x00, 0x00, 0x04, 0x00, 0x00, 0x00, 0x01, 0x00, 0x00, 0x00,
    0xeb, 0x03, 0x00, 0x00, 0x00, 0x00, 0x0a, 0x00, 0x10, 0x00, 0x0c, 0x00, 0x08, 0x00, 0x04, 0x00,
    0x0a, 0x00, 0x00, 0x00, 0x02, 0x00, 0x00, 0x00, 0x02, 0x00, 0x00, 0x00, 0x04, 0x00, 0x00, 0x00,
    0x06, 0x00, 0x00, 0x00, 0x32, 0x2e, 0x31, 0x31, 0x2e, 0x30, 0x00, 0x00, 0x0e, 0xee, 0xff, 0xff,
    0x04, 0x00, 0x00, 0x00, 0x10, 0x00, 0x00, 0x00, 0x31, 0x2e, 0x31, 0x34, 0x2e, 0x30, 0x00, 0x00,
    0x00, 0x00, 0x00, 0x00, 0x00, 0x00, 0x00, 0x00, 0x9c, 0xc9, 0xff, 0xff, 0xa0, 0xc9, 0xff, 0xff,
    0xa4, 0xc9, 0xff, 0xff, 0xa8, 0xc9, 0xff, 0xff, 0xac, 0xc9, 0xff, 0xff, 0xb0, 0xc9, 0xff, 0xff,
    0xb4, 0xc9, 0xff, 0xff, 0xb8, 0xc9, 0xff, 0xff, 0xbc, 0xc9, 0xff, 0xff, 0x4e, 0xee, 0xff, 0xff,
    0x04, 0x00, 0x00, 0x00, 0xb0, 0x01, 0x00, 0x00, 0xea, 0xdb, 0xb2, 0xd1, 0xe8, 0x1d, 0xfb, 0x44,
    0x48, 0xd1, 0x2f, 0x23, 0x81, 0x27, 0x57, 0xe2, 0x3e, 0x1e, 0xea, 0x37, 0x50, 0xcc, 0x11, 0x27,
    0x98, 0x9f, 0x14, 0xc2, 0xbb, 0xa9, 0x25, 0xdb, 0x20, 0x47, 0x27, 0xcf, 0xc1, 0xf3, 0x86, 0x33,
    0x12, 0xe5, 0x06, 0x7f, 0x4c, 0xe3, 0x1f, 0xce, 0x76, 0xd8, 0xdd, 0x6f, 0x69, 0x1d, 0x75, 0x84,
    0x03, 0x61, 0xda, 0x04, 0xf9, 0xf3, 0x07, 0x2e, 0xe2, 0xd0, 0x7f, 0x9e, 0xf0, 0x5a, 0xc1, 0x0c,
    0x1c, 0xd0, 0xff, 0x63, 0xa5, 0xc9, 0x31, 0xee, 0xfa, 0xb6, 0xaf, 0x1d, 0xfd, 0x3d, 0x3e, 0xfb,
    0xc3, 0x60, 0x5d, 0xc5, 0xf6, 0x60, 0x2f, 0x5b, 0xe8, 0x8d, 0xdf, 0x45, 0x98, 0x99, 0x14, 0xcf,
    0x29, 0x15, 0x81, 0x0b, 0x6e, 0x20, 0xc0, 0xd5, 0x07, 0x29, 0xc4, 0xd7, 0x1d, 0x20, 0x20, 0xcd,
    0x23, 0xb3, 0xbe, 0xf9, 0x03, 0x6d, 0x9f, 0x1d, 0xef, 0xdc, 0xf1, 0x9d, 0x7f, 0x5e, 0x45, 0x84,
    0xca, 0x95, 0xc9, 0x4b, 0x81, 0xe0, 0xe2, 0xb7, 0xba, 0x4e, 0x1c, 0xdd, 0xe9, 0x45, 0xf2, 0x61,
    0xf1, 0xdd, 0x4f, 0x12, 0x3e, 0x39, 0xed, 0xe2, 0x62, 0x63, 0x4c, 0x27, 0x2b, 0x43, 0xdd, 0x05,
    0xe2, 0xd0, 0xe6, 0x7f, 0xc2, 0x52, 0x77, 0x84, 0x17, 0xe0, 0xcf, 0xf8, 0x49, 0x28, 0xde, 0x78,
    0xa2, 0x9d, 0xf5, 0x8e, 0xd9, 0xc0, 0x51, 0xfc, 0xfc, 0xfe, 0x25, 0xba, 0x1a, 0x07, 0xdf, 0x26,
    0xf8, 0x81, 0x44, 0x1b, 0xaf, 0x12, 0x48, 0x02, 0xfd, 0xf9, 0xb3, 0x00, 0x22, 0xc1, 0x0e, 0x01,
    0xde, 0x29, 0x7f, 0xc6, 0x2f, 0xf5, 0x95, 0x00, 0xec, 0x42, 0xda, 0x65, 0x14, 0xed, 0x38, 0x07,
    0xe3, 0x19, 0xf1, 0xcc, 0x2b, 0x19, 0x2d, 0x44, 0x27, 0xd5, 0x35, 0xea, 0x35, 0xf6, 0x81, 0xac,
    0xa4, 0x6d, 0x54, 0xfd, 0x1a, 0xdc, 0x2c, 0x24, 0x8a, 0xc3, 0xc4, 0x3d, 0xc7, 0x5c, 0x70, 0xcb,
    0x6f, 0x77, 0x66, 0x87, 0xb4, 0x91, 0xf2, 0xd3, 0x00, 0x81, 0xa8, 0x08, 0xc3, 0xcb, 0xca, 0x01,
    0xdc, 0xbf, 0x29, 0xdf, 0x0d, 0x0d, 0x3e, 0xc7, 0x25, 0x3b, 0x2a, 0x3f, 0xfb, 0x7b, 0x7c, 0xf0,
    0x52, 0xdb, 0x44, 0x45, 0x30, 0x18, 0x54, 0x02, 0x1f, 0x4e, 0xe6, 0x2c, 0xad, 0xee, 0x5c, 0xbb,
    0x3a, 0xe4, 0xff, 0x38, 0xa5, 0xd7, 0xf5, 0xd7, 0x81, 0xe8, 0x9d, 0xc9, 0x14, 0x49, 0xd3, 0x9f,
    0x4a, 0xe0, 0xd9, 0x5c, 0xc1, 0xe6, 0x1f, 0x02, 0xd2, 0x7f, 0xe4, 0x0c, 0x55, 0xd2, 0xe0, 0x19,
    0xf7, 0xe0, 0x0a, 0xeb, 0xd7, 0x36, 0xea, 0xdc, 0x72, 0xcb, 0xef, 0xf1, 0xf7, 0xd4, 0x6f, 0xd5,
    0xf5, 0x0a, 0x16, 0x08, 0x71, 0x81, 0x4f, 0xfe, 0xca, 0xa1, 0x18, 0x27, 0xf2, 0x42, 0xea, 0x17,
    0x16, 0xb9, 0x81, 0x05, 0xb8, 0xfc, 0xf6, 0xd4, 0xee, 0x2f, 0x1e, 0xe5, 0x44, 0xf9, 0xa8, 0x2b,
    0x1c, 0xfe, 0x50, 0xc6, 0xfb, 0xd9, 0x47, 0xda, 0xe0, 0x3d, 0x07, 0xf5, 0x26, 0xf5, 0xc0, 0x08,
    0xb5, 0xc3, 0xcb, 0x1d, 0xea, 0x4c, 0xce, 0xfa, 0xe4, 0xec, 0x81, 0x1e, 0xa6, 0x28, 0xd7, 0x0b,
    0xed, 0xa3, 0xd5, 0xbd, 0xb3, 0xa0, 0xb8, 0x05, 0x0a, 0xf0, 0xff, 0xff, 0x04, 0x00, 0x00, 0x00,
    0x40, 0x00, 0x00, 0x00, 0xb7, 0x10, 0x00, 0x00, 0x71, 0x20, 0x00, 0x00, 0x2b, 0x0f, 0x00, 0x00,
    0x75, 0xf5, 0xff, 0xff, 0x8b, 0x1e, 0x00, 0x00, 0xd3, 0xf7, 0xff, 0xff, 0x32, 0xc1, 0xff, 0xff,
    0x9b, 0x06, 0x00, 0x00, 0x69, 0x60, 0x00, 0x00, 0x96, 0xff, 0xff, 0xff, 0x98, 0x05, 0x00, 0x00,
    0x1a, 0xf3, 0xff, 0xff, 0x8e, 0x16, 0x00, 0x00, 0x93, 0xfe, 0xff, 0xff, 0x0b, 0xf7, 0xff, 0xff,
    0x21, 0x96, 0xff, 0xff, 0x56, 0xf0, 0xff, 0xff, 0x04, 0x00, 0x00, 0x00, 0x90, 0x00, 0x00, 0x00,
    0xac, 0xc8, 0x62, 0x31, 0xf0, 0xcd, 0x95, 0x00, 0x6b, 0x01, 0x40, 0x26, 0x1f, 0xed, 0x4d, 0xdd,
    0x8f, 0x15, 0x0d, 0x52, 0x20, 0xf3, 0xb2, 0x2e, 0x33, 0x49, 0x56, 0x17, 0x89, 0x87, 0x1c, 0xd2,
    0xf6, 0x21, 0x81, 0x2f, 0x05, 0xde, 0xe7, 0xc3, 0x9b, 0xb1, 0x1e, 0x19, 0x0f, 0x3a, 0xa6, 0x67,
    0xb5, 0x81, 0xd6, 0x53, 0x45, 0xd9, 0xbc, 0x5f, 0xb3, 0xd1, 0x2d, 0x77, 0xb2, 0x18, 0x81, 0x81,
    0x81, 0x46, 0x42, 0x5b, 0xe6, 0xff, 0x9e, 0x06, 0x45, 0x32, 0x2c, 0x7f, 0xd5, 0x5d, 0x17, 0x47,
    0xe4, 0x53, 0x00, 0xef, 0xea, 0xa5, 0x91, 0x9c, 0x26, 0x08, 0x05, 0x56, 0x08, 0xa8, 0x50, 0x32,
    0xe1, 0x87, 0xc6, 0x7f, 0x7e, 0xe4, 0xb9, 0x7f, 0xb4, 0x23, 0x90, 0x6c, 0x81, 0x3e, 0x20, 0xde,
    0xf6, 0x03, 0xbf, 0x13, 0x81, 0xf2, 0xc5, 0xd8, 0x13, 0x81, 0x81, 0x4f, 0x05, 0x7f, 0xf3, 0x02,
    0x44, 0x40, 0x7e, 0x97, 0xdb, 0x81, 0x81, 0xb8, 0x7f, 0x50, 0xc2, 0x4b, 0x37, 0xf6, 0xca, 0x61,
    0xf2, 0xf0, 0xff, 0xff, 0x04, 0x00, 0x00, 0x00, 0x40, 0x00, 0x00, 0x00, 0xaa, 0x19, 0x00, 0x00,
    0x01, 0x01, 0x00, 0x00, 0x37, 0xfe, 0xff, 0xff, 0xcf, 0xed, 0xff, 0xff, 0xe5, 0xfe, 0xff, 0xff,
    0xe0, 0x12, 0x00, 0x00, 0x0a, 0x0c, 0x00, 0x00, 0xe6, 0xfd, 0xff, 0xff, 0xd2, 0xf4, 0xff, 0xff,
    0x78, 0xfe, 0xff, 0xff, 0xc2, 0xff, 0xff, 0xff, 0x51, 0xd3, 0xff, 0xff, 0x6c, 0x16, 0x00, 0x00,
    0x1b, 0x00, 0x00, 0x00, 0x3d, 0x01, 0x00, 0x00, 0x03, 0xfb, 0xff, 0xff, 0x3e, 0xf1, 0xff, 0xff,
    0x04, 0x00, 0x00, 0x00, 0x80, 0x01, 0x00, 0x00, 0x3b, 0x19, 0x03, 0x6c, 0x42, 0xcf, 0xe1, 0xeb,
    0x81, 0x33, 0x22, 0x25, 0x48, 0x1d, 0x17, 0x02, 0x1d, 0x19, 0x0c, 0xc3, 0x03, 0x09, 0xf5, 0x0b,
    0x0f, 0x0d, 0xff, 0xef, 0x81, 0x0f, 0xda, 0x05, 0xed, 0x1e, 0x08, 0xf1, 0x08, 0x6b, 0x00, 0x29,
    0xd4, 0x05, 0x81, 0x15, 0xc0, 0x0d, 0xc5, 0xf8, 0x35, 0x5c, 0x30, 0xaf, 0x4b, 0xb8, 0xb1, 0x43,
    0x1e, 0x7f, 0x16, 0x42, 0x49, 0xc1, 0x04, 0x2b, 0xfc, 0xe1, 0xcf, 0x54, 0x0d, 0x57, 0x7f, 0xfc,
    0xea, 0xf0, 0xcc, 0x2d, 0x91, 0x27, 0x0b, 0xfc, 0xd5, 0x04, 0x15, 0xdf, 0x1b, 0xeb, 0xb9, 0xff,
    0xe9, 0x23, 0x7f, 0x18, 0x55, 0xef, 0x0f, 0xfe, 0x0b, 0x0d, 0x03, 0x18, 0xf2, 0xcf, 0x0f, 0x16,
    0xb7, 0xed, 0x0a, 0x12, 0xf9, 0x81, 0xb2, 0xc1, 0xf5, 0x48, 0xd5, 0x0b, 0x14, 0xf6, 0x33, 0x3a,
    0xff, 0xf4, 0x45, 0x81, 0x1d, 0xc9, 0xca, 0x23, 0x65, 0x6e, 0x17, 0x6b, 0x15, 0x28, 0xde, 0xfd,
    0xea, 0xd5, 0xbf, 0x7f, 0xbc, 0xfc, 0x0c, 0x08, 0xf7, 0xbd, 0x7f, 0xd9, 0xeb, 0xfb, 0xfa, 0xe6,
    0xf9, 0x36, 0x2b, 0x20, 0xf1, 0xed, 0xfc, 0xf0, 0x81, 0x9c, 0x12, 0xbd, 0xbd, 0x66, 0x1f, 0xeb,
    0x3b, 0x40, 0x04, 0xcf, 0x0e, 0xd6, 0x70, 0x57, 0x1f, 0xf8, 0xdb, 0x0c, 0xeb, 0x8e, 0x37, 0x13,
    0x21, 0x48, 0x8f, 0x3b, 0xa4, 0x81, 0x23, 0x3c, 0xe8, 0xcd, 0x2c, 0xcc, 0xce, 0x73, 0x7c, 0xd4,
    0xc7, 0x1b, 0xa8, 0x0e, 0x7f, 0x08, 0xf8, 0xad, 0x43, 0x00, 0x05, 0xf6, 0x13, 0xd8, 0x93, 0xe4,
    0xb9, 0x1d, 0x25, 0x09, 0x7f, 0x1a, 0xf1, 0x21, 0xee, 0x4a, 0x31, 0xff, 0x7f, 0x39, 0xf6, 0x37,
    0x3a, 0x2e, 0xc7, 0xc0, 0xf8, 0x0b, 0x21, 0x40, 0x06, 0x6f, 0x08, 0x08, 0x55, 0xf1, 0x2f, 0x35,
    0x15, 0x7f, 0xec, 0x38, 0x2b, 0xef, 0x23, 0xf4, 0x30, 0xbc, 0xb9, 0xb3, 0x1b, 0x4a, 0x37, 0x81,
    0xe7, 0xc3, 0x1d, 0xa6, 0x51, 0x37, 0x25, 0xad, 0x1c, 0x2a, 0x0e, 0x09, 0xfd, 0x38, 0xf1, 0xf6,
    0x6a, 0x81, 0xf6, 0x39, 0xe0, 0xc0, 0x89, 0x03, 0x6e, 0x4a, 0x9c, 0xc5, 0x0c, 0xdb, 0xfb, 0x45,
    0xfd, 0xc8, 0xc3, 0xfb, 0xda, 0xe1, 0x81, 0x3a, 0x1e, 0xf0, 0xb9, 0xfa, 0x2b, 0x48, 0x13, 0xcb,
    0x3a, 0x99, 0x13, 0x57, 0xac, 0x7f, 0x41, 0x91, 0xd8, 0xc9, 0x25, 0x40, 0x3b, 0x28, 0xe4, 0x89,
    0x11, 0x81, 0xce, 0x44, 0xe1, 0xcc, 0xe3, 0xd6, 0x5f, 0xef, 0xc4, 0xed, 0xc2, 0xeb, 0x52, 0xb4,
    0xe3, 0xe1, 0x7f, 0x45, 0x8f, 0xed, 0x25, 0xce, 0xae, 0xf2, 0x11, 0xf8, 0xcb, 0x09, 0xe3, 0x3e,
    0x0b, 0xd7, 0x7f, 0x14, 0xea, 0x03, 0xc6, 0xf5, 0xaf, 0x03, 0x4c, 0x2d, 0xd9, 0xa3, 0x84, 0xee,
    0x6b, 0x14, 0x81, 0xd1, 0xcd, 0x1e, 0xa4, 0xc0, 0xca, 0xf2, 0xff, 0xff, 0x04, 0x00, 0x00, 0x00,
    0x60, 0x00, 0x00, 0x00, 0x28, 0xf3, 0xff, 0xff, 0x25, 0xf1, 0xff, 0xff, 0x05, 0x0b, 0x00, 0x00,
    0xb6, 0xeb, 0xff, 0xff, 0xd0, 0xdc, 0xff, 0xff, 0xe0, 0xfb, 0xff, 0xff, 0x47, 0x4b, 0x00, 0x00,
    0x40, 0x13, 0x00, 0x00, 0xf3, 0xef, 0xff, 0xff, 0xbc, 0xf7, 0xff, 0xff, 0x35, 0x00, 0x00, 0x00,
    0x46, 0x03, 0x00, 0x00, 0x90, 0xff, 0xff, 0xff, 0x10, 0xfd, 0xff, 0xff, 0x1f, 0xee, 0xff, 0xff,
    0x8b, 0xd0, 0xff, 0xff, 0xd9, 0x0b, 0x00, 0x00, 0x75, 0x0a, 0x00, 0x00, 0xd0, 0x10, 0x00, 0x00,
    0x14, 0xd5, 0xff, 0xff, 0x29, 0xfe, 0xff, 0xff, 0xb6, 0x5c, 0x00, 0x00, 0x20, 0x00, 0x00, 0x00,
    0xf9, 0x4a, 0x00, 0x00, 0x36, 0xf3, 0xff, 0xff, 0x04, 0x00, 0x00, 0x00, 0xd8, 0x00, 0x00, 0x00,
    0x8e, 0xad, 0x2a, 0x33, 0xdc, 0xa4, 0xf0, 0x6d, 0xbe, 0xba, 0x55, 0xde, 0x7f, 0x54, 0xad, 0xc5,
    0x05, 0xb6, 0xc6, 0xb0, 0x49, 0x20, 0xc6, 0x26, 0x93, 0x81, 0x37, 0x1d, 0xbb, 0x07, 0x44, 0x7f,
    0xae, 0xa9, 0x34, 0xe5, 0x4c, 0xbf, 0xd2, 0xcf, 0x90, 0xb9, 0x87, 0xa7, 0x06, 0x03, 0xba, 0x2a,
    0xaa, 0xbc, 0x07, 0xf9, 0xea, 0x50, 0x41, 0x39, 0xb6, 0xc3, 0x26, 0x7f, 0x29, 0xdf, 0x01, 0xf2,
    0x49, 0xb8, 0xa8, 0xf2, 0x28, 0x28, 0xe6, 0x1a, 0x59, 0xf9, 0x59, 0x4b, 0xba, 0x81, 0x42, 0xc5,
    0xc0, 0x9e, 0x7f, 0x23, 0x5c, 0x3a, 0x81, 0xaf, 0x2a, 0x06, 0xd1, 0xa5, 0x5c, 0x71, 0x81, 0x57,
    0x17, 0xea, 0x7f, 0xf9, 0x81, 0xcb, 0x63, 0x1f, 0xd2, 0x81, 0x49, 0xb9, 0x3b, 0x41, 0xd3, 0x81,
    0x81, 0x10, 0x81, 0x81, 0x7f, 0x68, 0x95, 0x7f, 0x24, 0x18, 0x1a, 0xa1, 0xb6, 0x76, 0x5c, 0xb8,
    0x05, 0xce, 0x3a, 0x5f, 0xd1, 0x8f, 0x36, 0xc7, 0x5b, 0x81, 0x9e, 0xa0, 0x69, 0x7f, 0xc4, 0x70,
    0x4b, 0x55, 0x2d, 0x13, 0x15, 0x97, 0x69, 0x35, 0x0d, 0xce, 0x2b, 0x75, 0x1b, 0xfe, 0x96, 0xf3,
    0xd4, 0x64, 0xe8, 0xe4, 0x33, 0x57, 0xb9, 0x30, 0x7f, 0x54, 0x59, 0xd9, 0xc6, 0xfc, 0x3f, 0x10,
    0x7f, 0xd8, 0x59, 0x36, 0xf9, 0x55, 0xe7, 0xbc, 0x82, 0xe9, 0xc5, 0xd0, 0x37, 0x67, 0xb1, 0x52,
    0x19, 0x39, 0x44, 0x81, 0xce, 0x45, 0x7f, 0x5a, 0x6b, 0xfe, 0x44, 0x04, 0xc6, 0x81, 0x16, 0xcd,
    0xfa, 0x94, 0xf4, 0x9f, 0x47, 0x69, 0xe8, 0x7c, 0x1a, 0xf4, 0xff, 0xff, 0x04, 0x00, 0x00, 0x00,
    0x60, 0x00, 0x00, 0x00, 0x12, 0x01, 0x00, 0x00, 0x44, 0xfd, 0xff, 0xff, 0x9a, 0xf9, 0xff, 0xff,
    0x08, 0xff, 0xff, 0xff, 0x59, 0xf0, 0xff, 0xff, 0x74, 0x00, 0x00, 0x00, 0x07, 0xe9, 0xff, 0xff,
    0xd1, 0xf4, 0xff, 0xff, 0x95, 0xff, 0xff, 0xff, 0x6a, 0xfa, 0xff, 0xff, 0x49, 0xf7, 0xff, 0xff,
    0xe6, 0x04, 0x00, 0x00, 0xdb, 0xfb, 0xff, 0xff, 0x12, 0xff, 0xff, 0xff, 0x4f, 0xff, 0xff, 0xff,
    0x9f, 0xf2, 0xff, 0xff, 0x41, 0xfd, 0xff, 0xff, 0xf5, 0x02, 0x00, 0x00, 0x11, 0x06, 0x00, 0x00,
    0xbf, 0xec, 0xff, 0xff, 0x02, 0x0b, 0x00, 0x00, 0x8d, 0xe7, 0xff, 0xff, 0xec, 0xfe, 0xff, 0xff,
    0x91, 0xeb, 0xff, 0xff, 0x86, 0xf4, 0xff, 0xff, 0x04, 0x00, 0x00, 0x00, 0x00, 0x03, 0x00, 0x00,
    0x41, 0x3f, 0xca, 0x45, 0x77, 0xbd, 0x3c, 0xf5, 0x48, 0xb0, 0xce, 0xf4, 0xf9, 0x34, 0x81, 0xc1,
    0x24, 0x23, 0x06, 0x34, 0x12, 0xe7, 0xca, 0xfa, 0x3d, 0xbc, 0x02, 0xd4, 0x04, 0xc5, 0x45, 0x3b,
    0xb1, 0x4f, 0xce, 0x3a, 0x62, 0xee, 0x00, 0xe4, 0x0d, 0xe2, 0x9e, 0x81, 0xea, 0x37, 0xe1, 0x2e,
    0xec, 0xab, 0x7f, 0xff, 0x01, 0x15, 0xbd, 0xeb, 0xf9, 0xd5, 0x9e, 0x1f, 0xda, 0x2b, 0xaf, 0x1c,
    0x06, 0x1d, 0xcf, 0xcc, 0x26, 0x0d, 0xc9, 0xd3, 0x42, 0x1c, 0xfe, 0xfc, 0x81, 0x4f, 0x1e, 0xfb,
    0xfc, 0x39, 0x37, 0x41, 0xfa, 0xeb, 0xbb, 0x92, 0x19, 0x0a, 0xd4, 0x17, 0x28, 0x0a, 0xf6, 0x29,
    0xde, 0x11, 0x32, 0x09, 0xb3, 0xd4, 0x0f, 0x30, 0xed, 0x70, 0x20, 0xd5, 0x37, 0xc0, 0x4a, 0x6a,
    0xf2, 0x03, 0x1a, 0xf2, 0x4b, 0x7f, 0x3b, 0x46, 0x17, 0x7f, 0x16, 0xc3, 0xeb, 0xbf, 0x1a, 0xf2,
    0x44, 0xd0, 0xc9, 0xe7, 0xcc, 0xc3, 0x17, 0xd2, 0xc8, 0x04, 0x21, 0xd6, 0x09, 0x1a, 0xe0, 0xac,
    0xb5, 0x01, 0xa3, 0x45, 0x7f, 0x94, 0xad, 0x28, 0xb8, 0xb1, 0x2a, 0xc7, 0x26, 0x2f, 0x1b, 0xa1,
    0x3f, 0x06, 0xf7, 0x30, 0xd7, 0x14, 0x0f, 0xf2, 0xa6, 0x1f, 0x4c, 0x51, 0x9d, 0x07, 0xf2, 0x22,
    0x3d, 0xfe, 0x16, 0xdd, 0xda, 0xc1, 0x4c, 0xab, 0x9f, 0x81, 0xb0, 0xcf, 0x1b, 0x11, 0x34, 0x04,
    0x49, 0x8a, 0x77, 0xc6, 0x34, 0x99, 0x55, 0x28, 0xc0, 0x05, 0x81, 0xcc, 0xf4, 0xfa, 0x51, 0xe8,
    0xbf, 0x02, 0x17, 0xbc, 0xe8, 0xde, 0x60, 0x29, 0xe6, 0xab, 0x31, 0x0e, 0x00, 0x30, 0x43, 0xba,
    0x81, 0xb3, 0xc8, 0xf3, 0xe5, 0x18, 0xd1, 0xa2, 0x07, 0xb8, 0xb5, 0x1c, 0x01, 0xce, 0xfc, 0xd7,
    0xab, 0x2b, 0xb1, 0x0d, 0xf9, 0xf4, 0x16, 0xca, 0x8b, 0x4f, 0x29, 0x18, 0xf9, 0x38, 0xd9, 0x2d,
    0x23, 0x81, 0x06, 0xd3, 0x2b, 0xc1, 0x44, 0xb7, 0x24, 0x4e, 0xcd, 0xe9, 0x2d, 0xba, 0xef, 0xcd,
    0x4b, 0x7f, 0xb2, 0xe8, 0x64, 0xfd, 0xf2, 0x49, 0xac, 0xf7, 0xf9, 0xb7, 0x3e, 0xc8, 0x21, 0xd1,
    0xce, 0x0d, 0x65, 0xee, 0xe6, 0xd4, 0x0f, 0xc1, 0xf2, 0x05, 0xbf, 0xed, 0x51, 0xcd, 0xe0, 0xd0,
    0x0b, 0x13, 0x15, 0xff, 0xae, 0x03, 0x7f, 0xe2, 0x57, 0xc3, 0xed, 0x57, 0x0c, 0xdd, 0x24, 0x55,
    0x81, 0x34, 0x35, 0xc1, 0x47, 0xcd, 0xb2, 0xb5, 0xe0, 0xb0, 0xb9, 0x47, 0xdc, 0x1d, 0xd7, 0x45,
    0xf9, 0x04, 0x38, 0x1a, 0xb3, 0x1c, 0x17, 0x0f, 0xee, 0x50, 0x3e, 0x00, 0xf2, 0xee, 0x16, 0x67,
    0xfb, 0xec, 0xe6, 0xdb, 0xd7, 0x7f, 0x40, 0x12, 0x19, 0x37, 0xec, 0x81, 0x74, 0x4b, 0xb9, 0x2c,
    0x2b, 0xbd, 0xd4, 0x21, 0x09, 0x29, 0x00, 0x84, 0xd4, 0xe6, 0x17, 0x40, 0x06, 0xae, 0xb6, 0xfd,
    0x0d, 0x1d, 0x29, 0x46, 0x81, 0xfb, 0xef, 0x05, 0xee, 0x3c, 0x1f, 0xe8, 0x01, 0xda, 0x12, 0x30,
    0x35, 0xbc, 0x39, 0x04, 0x1c, 0x2f, 0x30, 0xec, 0x33, 0x36, 0xf7, 0xd9, 0x54, 0xea, 0x1f, 0x48,
    0xdd, 0xc6, 0xdc, 0x1a, 0xd5, 0x53, 0x81, 0x94, 0x31, 0x36, 0xcd, 0x1d, 0xad, 0xc7, 0xcf, 0x0f,
    0x18, 0x3f, 0x37, 0xf9, 0xdd, 0xd8, 0xf3, 0xef, 0xf5, 0x4e, 0x0d, 0xe8, 0xee, 0xca, 0x1c, 0x7f,
    0xee, 0xee, 0x28, 0xfa, 0x0a, 0x61, 0x2c, 0xf7, 0x45, 0x3a, 0x7f, 0x8b, 0xf4, 0xec, 0x19, 0xeb,
    0x15, 0x3f, 0xe1, 0x26, 0xfa, 0xe9, 0xe2, 0xc1, 0xbf, 0xff, 0x13, 0xec, 0x37, 0x22, 0x2e, 0xe3,
    0x9e, 0xde, 0x81, 0xfe, 0xdf, 0x39, 0x8e, 0x8f, 0xbc, 0x88, 0x40, 0x6c, 0x1c, 0x4f, 0xf1, 0x45,
    0xfc, 0x25, 0x35, 0x62, 0x1d, 0xa5, 0x41, 0x29, 0xb7, 0x49, 0x3d, 0x7f, 0x44, 0xbf, 0xaa, 0x4d,
    0xd7, 0xb3, 0x0e, 0xe8, 0xf4, 0xf0, 0xa8, 0x31, 0xe9, 0xdf, 0x3a, 0xfb, 0xca, 0x41, 0x99, 0x0b,
    0xfe, 0xc4, 0x2e, 0xf0, 0xec, 0x48, 0x7f, 0xec, 0x09, 0x45, 0x19, 0xc5, 0xf0, 0x38, 0xc2, 0x01,
    0x02, 0x19, 0xec, 0xff, 0x07, 0x47, 0x16, 0xce, 0xde, 0x5f, 0xfa, 0xfe, 0x1d, 0xc0, 0x00, 0x21,
    0xff, 0xce, 0x9c, 0x0a, 0x0b, 0x2b, 0x76, 0x01, 0xc2, 0x29, 0xe4, 0x44, 0x83, 0x2a, 0x7a, 0x7f,
    0x5d, 0x0c, 0xeb, 0xf5, 0x57, 0xea, 0xd4, 0x1e, 0x7f, 0xcf, 0xaf, 0xfa, 0xa4, 0x25, 0xd2, 0xbf,
    0x9e, 0x1f, 0x22, 0x95, 0x28, 0x24, 0x42, 0x37, 0xb8, 0x3a, 0x67, 0x05, 0xbe, 0xe3, 0x44, 0x13,
    0x25, 0xf5, 0xfb, 0x1d, 0x27, 0x02, 0xc2, 0x1a, 0x81, 0xea, 0x0d, 0x9d, 0x1c, 0x5a, 0x5b, 0xb4,
    0x1c, 0xda, 0xd0, 0x08, 0x4d, 0x24, 0x3e, 0x30, 0x0a, 0x83, 0xbd, 0x10, 0xd6, 0x3a, 0xc1, 0xdb,
    0x28, 0xf7, 0x81, 0x47, 0xb3, 0xa2, 0xd0, 0xe3, 0xd2, 0xf8, 0xfc, 0xb3, 0xb2, 0xeb, 0xed, 0x08,
    0x07, 0x3c, 0x2c, 0xf2, 0x03, 0xc8, 0x61, 0x1e, 0xf0, 0xe2, 0x7f, 0xce, 0x1a, 0x2a, 0x37, 0x0e,
    0x59, 0xcc, 0xd8, 0xdf, 0xd3, 0xed, 0xdc, 0x2c, 0xf0, 0x9a, 0xbe, 0x03, 0x7f, 0xd0, 0xbf, 0x15,
    0x16, 0xb6, 0x3f, 0x36, 0x5c, 0x2d, 0xf5, 0x8e, 0x0d, 0x4d, 0xe9, 0xd9, 0xd1, 0x81, 0x12, 0xef,
    0xe3, 0x08, 0xda, 0x17, 0x2b, 0xdf, 0x71, 0xb6, 0x0a, 0x4e, 0x1c, 0x03, 0x20, 0x3e, 0x0a, 0xa4,
    0x2d, 0x9c, 0x81, 0xf7, 0x6f, 0xaf, 0x13, 0xad, 0xd3, 0xe2, 0xcc, 0xc3, 0x96, 0x21, 0x97, 0xaa,
    0x9a, 0xcb, 0x0e, 0xe2, 0x89, 0xea, 0xf6, 0x3c, 0x84, 0x1c, 0x5b, 0x3e, 0xad, 0xf4, 0x56, 0x01,
    0xec, 0x21, 0x35, 0x72, 0x57, 0xd7, 0x55, 0x4f, 0x9c, 0x4d, 0x47, 0xf4, 0x72, 0x4b, 0x81, 0x57,
    0x92, 0xf7, 0xff, 0xff, 0x04, 0x00, 0x00, 0x00, 0x80, 0x00, 0x00, 0x00, 0x03, 0x08, 0x00, 0x00,
    0xe7, 0xe5, 0xff, 0xff, 0x6f, 0x1a, 0x00, 0x00, 0xee, 0x00, 0x00, 0x00, 0x87, 0x06, 0x00, 0x00,
    0xd5, 0x00, 0x00, 0x00, 0x90, 0xf0, 0xff, 0xff, 0x03, 0x0e, 0x00, 0x00, 0xdf, 0x17, 0x00, 0x00,
    0xd3, 0x42, 0x00, 0x00, 0x4f, 0x0e, 0x00, 0x00, 0x3c, 0x16, 0x00, 0x00, 0x3c, 0x04, 0x00, 0x00,
    0x6e, 0x0a, 0x00, 0x00, 0xd5, 0xd9, 0xff, 0xff, 0x56, 0x11, 0x00, 0x00, 0x3b, 0xf7, 0xff, 0xff,
    0x1a, 0x0d, 0x00, 0x00, 0x8f, 0xfb, 0xff, 0xff, 0x3f, 0xe8, 0xff, 0xff, 0xdb, 0xf5, 0xff, 0xff,
    0x4f, 0x02, 0x00, 0x00, 0x45, 0xf5, 0xff, 0xff, 0x9d, 0xf0, 0xff, 0xff, 0x3d, 0xf3, 0xff, 0xff,
    0x79, 0x4b, 0x00, 0x00, 0x57, 0x09, 0x00, 0x00, 0xcb, 0xec, 0xff, 0xff, 0xae, 0x12, 0x00, 0x00,
    0x59, 0xff, 0xff, 0xff, 0x4c, 0x3b, 0x00, 0x00, 0xdd, 0xd9, 0xff, 0xff, 0x1e, 0xf8, 0xff, 0xff,
    0x04, 0x00, 0x00, 0x00, 0x20, 0x01, 0x00, 0x00, 0x33, 0xde, 0x98, 0xbf, 0x32, 0x81, 0x08, 0x35,
    0x00, 0x7f, 0x7f, 0x03, 0x4d, 0x2a, 0x22, 0xcf, 0xdc, 0x14, 0x2c, 0x91, 0x04, 0xe0, 0x39, 0xc7,
    0x72, 0x1c, 0x7f, 0x29, 0xdc, 0xdd, 0x16, 0x6b, 0x9b, 0x0f, 0xef, 0x1b, 0xf7, 0xca, 0x81, 0xe9,
    0xd7, 0x66, 0xf1, 0x28, 0x0c, 0x05, 0xa9, 0xe4, 0x7f, 0x3f, 0x03, 0x98, 0xc3, 0x16, 0x54, 0xce,
    0x60, 0x43, 0x7c, 0x1c, 0x2e, 0x41, 0x52, 0xca, 0xe4, 0x39, 0x7f, 0x0e, 0xde, 0x65, 0xd7, 0x51,
    0xee, 0x26, 0x96, 0x39, 0xaf, 0x2d, 0x3e, 0x3c, 0xef, 0xf9, 0xaa, 0xe8, 0xfc, 0x59, 0x26, 0xe0,
    0x12, 0xef, 0x04, 0x07, 0x31, 0x2d, 0xa2, 0xd5, 0x7f, 0xf3, 0xa9, 0xf5, 0x7f, 0x82, 0xf6, 0xda,
    0x36, 0x58, 0xfd, 0x72, 0x7f, 0xdc, 0x28, 0xd2, 0xbc, 0xa8, 0x49, 0x81, 0x05, 0x7f, 0x14, 0xe3,
    0xde, 0x71, 0x23, 0xe7, 0x81, 0x81, 0x26, 0x81, 0xaa, 0x06, 0x1f, 0xf0, 0xed, 0xdc, 0x0a, 0x9f,
    0xdb, 0x26, 0xec, 0x23, 0x1e, 0x4b, 0x81, 0x98, 0x65, 0x0a, 0x13, 0x98, 0x8f, 0x06, 0xfa, 0x48,
    0xf2, 0x2c, 0x41, 0x81, 0xfc, 0x25, 0x53, 0x29, 0xd0, 0xff, 0x5d, 0x0e, 0xcc, 0x5b, 0xbd, 0xef,
    0xd8, 0x3f, 0x03, 0xe5, 0x8e, 0x1d, 0x38, 0x7a, 0x51, 0x7f, 0x81, 0xa5, 0x81, 0x85, 0x81, 0x42,
    0xe9, 0xed, 0xf5, 0xc0, 0x75, 0x51, 0xce, 0x13, 0x5e, 0xe5, 0x22, 0x7f, 0x3f, 0xb4, 0x87, 0x89,
    0x7f, 0x0a, 0x3a, 0xc7, 0x28, 0xc3, 0x05, 0x2c, 0x0f, 0xa8, 0x32, 0xa6, 0xf9, 0xd2, 0x81, 0xd2,
    0x81, 0x7f, 0xb5, 0xe3, 0x9f, 0xa3, 0x52, 0xdf, 0xe5, 0x7f, 0x10, 0x59, 0xf1, 0x0d, 0xd8, 0x15,
    0x14, 0xf6, 0xe5, 0xa3, 0x20, 0x7f, 0xb5, 0x81, 0x96, 0xac, 0x0d, 0xb4, 0x9b, 0xad, 0xbf, 0x46,
    0x94, 0x5e, 0xcd, 0xbe, 0xce, 0x04, 0x81, 0x2f, 0xcd, 0x1f, 0xc9, 0xea, 0xc7, 0x61, 0x4f, 0x7f,
    0xa8, 0x13, 0xd1, 0x81, 0xba, 0x25, 0x30, 0x3f, 0xe1, 0x63, 0xc1, 0x9e, 0xb0, 0xfd, 0x87, 0x7f,
    0xb1, 0x54, 0xdb, 0xe7, 0x2d, 0x14, 0xea, 0xf5, 0x4a, 0xf9, 0xff, 0xff, 0x04, 0x00, 0x00, 0x00,
    0x80, 0x00, 0x00, 0x00, 0xd4, 0xfd, 0xff, 0xff, 0x49, 0x02, 0x00, 0x00, 0x6f, 0x00, 0x00, 0x00,
    0xd8, 0xfb, 0xff, 0xff, 0x1e, 0xfd, 0xff, 0xff, 0xff, 0xf8, 0xff, 0xff, 0x5d, 0xf6, 0xff, 0xff,
    0xec, 0xfe, 0xff, 0xff, 0x8d, 0xff, 0xff, 0xff, 0x1f, 0xef, 0xff, 0xff, 0x69, 0x00, 0x00, 0x00,
    0x4a, 0xfb, 0xff, 0xff, 0xaf, 0xfe, 0xff, 0xff, 0x82, 0xf9, 0xff, 0xff, 0x66, 0xfc, 0xff, 0xff,
    0x40, 0xfe, 0xff, 0xff, 0xb9, 0xfe, 0xff, 0xff, 0x30, 0xfd, 0xff, 0xff, 0xe9, 0x02, 0x00, 0x00,
    0x87, 0xe9, 0xff, 0xff, 0x30, 0xf1, 0xff, 0xff, 0x38, 0xfb, 0xff, 0xff, 0x2f, 0x00, 0x00, 0x00,
    0xa7, 0xfc, 0xff, 0xff, 0x64, 0xfe, 0xff, 0xff, 0xf9, 0xec, 0xff, 0xff, 0x79, 0x04, 0x00, 0x00,
    0x41, 0xfa, 0xff, 0xff, 0x69, 0xff, 0xff, 0xff, 0xfd, 0xfb, 0xff, 0xff, 0x6b, 0xfc, 0xff, 0xff,
    0x81, 0xfe, 0xff, 0xff, 0xd6, 0xf9, 0xff, 0xff, 0x04, 0x00, 0x00, 0x00, 0x00, 0x05, 0x00, 0x00,
    0xfa, 0xae, 0x28, 0xc8, 0x81, 0x66, 0xf9, 0xe1, 0x0f, 0x9d, 0x16, 0x05, 0x0c, 0x07, 0xe1, 0xd1,
    0xd5, 0xfa, 0xe2, 0xa5, 0xf6, 0x09, 0xa3, 0x35, 0x23, 0x3d, 0x95, 0x9f, 0x44, 0x20, 0xf9, 0xbb,
    0xa6, 0xa3, 0xa8, 0x0c, 0x02, 0xc5, 0x01, 0xdf, 0x23, 0x92, 0x38, 0x15, 0x53, 0x8c, 0xff, 0xb6,
    0xf2, 0x1c, 0x04, 0xcb, 0x2a, 0xc5, 0x0e, 0xfd, 0x0b, 0xe6, 0xb5, 0xd0, 0xf3, 0x7f, 0x87, 0x40,
    0x4c, 0x1b, 0xb2, 0x2e, 0x29, 0x97, 0xe5, 0x1e, 0xfe, 0x7f, 0x38, 0xb8, 0xe5, 0x3f, 0x3f, 0x4c,
    0x38, 0xe9, 0x3d, 0x74, 0xb9, 0x03, 0x0f, 0xf8, 0x21, 0x1b, 0x2e, 0x23, 0x21, 0x43, 0xf4, 0xf8,
    0x87, 0xc3, 0x58, 0xd2, 0xb0, 0x2f, 0x45, 0xeb, 0xe8, 0x9a, 0x22, 0x21, 0x1c, 0xcf, 0xa9, 0x81,
    0x1a, 0x2f, 0xe4, 0xdc, 0x2c, 0x33, 0xcd, 0x59, 0xe0, 0x11, 0xc4, 0xa5, 0x10, 0x67, 0xe2, 0xde,
    0x19, 0x29, 0x2a, 0xdf, 0x0a, 0x81, 0xd0, 0x23, 0xaa, 0x39, 0xa2, 0x09, 0xf0, 0xd8, 0x31, 0x23,
    0x5b, 0x6c, 0x68, 0x66, 0x1a, 0xda, 0x38, 0xe6, 0xfd, 0xbd, 0x76, 0x5e, 0xe6, 0xe3, 0x33, 0xa6,
    0x17, 0x36, 0xd6, 0xbc, 0xf1, 0x57, 0x16, 0x05, 0xbb, 0xab, 0xd8, 0x21, 0x7f, 0x15, 0xd7, 0xed,
    0xa4, 0xe9, 0x98, 0xaa, 0x01, 0xf3, 0xda, 0xff, 0x1b, 0x09, 0xc9, 0x0c, 0x22, 0x0d, 0x8d, 0x32,
    0x7f, 0x18, 0xc8, 0xe6, 0x2a, 0x91, 0x40, 0x42, 0x2a, 0x30, 0x32, 0xbc, 0x19, 0x09, 0x35, 0xe2,
    0xd9, 0x17, 0x3b, 0x3b, 0xf6, 0xc3, 0x35, 0xda, 0x2d, 0x9a, 0x44, 0x39, 0xb2, 0x09, 0x2d, 0x9d,
    0xd1, 0xc1, 0xa0, 0x7e, 0x12, 0xa9, 0xfe, 0x78, 0x2a, 0x7f, 0x01, 0x16, 0x21, 0xb8, 0x5d, 0xc0,
    0x32, 0x79, 0xf0, 0x6e, 0xfb, 0xfa, 0x4e, 0x16, 0xe6, 0xb2, 0x12, 0xff, 0xec, 0xf9, 0xea, 0xed,
    0x53, 0x23, 0x05, 0x0c, 0xe6, 0x23, 0xc3, 0x43, 0xd7, 0x78, 0x30, 0xe3, 0x05, 0xff, 0x07, 0x09,
    0x3d, 0xc8, 0xfc, 0x1e, 0x11, 0x01, 0xd5, 0xde, 0x60, 0xfd, 0xba, 0x09, 0xcd, 0x4a, 0x7f, 0xdb,
    0x09, 0x38, 0x2a, 0xe6, 0x7f, 0xbd, 0xd4, 0xd5, 0xdc, 0x74, 0xd5, 0x33, 0x9b, 0x2e, 0x3c, 0x18,
    0x16, 0x2b, 0x51, 0x4f, 0xdc, 0xd5, 0xd8, 0xd2, 0xc8, 0xc0, 0x4b, 0x1b, 0x12, 0xd4, 0x1e, 0x46,
    0x42, 0xd8, 0x0e, 0x49, 0x9b, 0x11, 0x22, 0x04, 0x17, 0x01, 0x1f, 0x2d, 0xee, 0xd5, 0x8e, 0xed,
    0x29, 0x0d, 0xc2, 0x02, 0x7f, 0x05, 0xba, 0x2f, 0xf2, 0x50, 0x9d, 0xa8, 0x0c, 0xf2, 0x1d, 0x08,
    0xd6, 0x22, 0x03, 0xff, 0x94, 0x46, 0xd7, 0x27, 0x28, 0xd6, 0x1e, 0x15, 0x4b, 0x0f, 0x19, 0x49,
    0xf7, 0x8f, 0x81, 0xdc, 0xf7, 0x0f, 0x1d, 0x07, 0xaf, 0x3b, 0xe3, 0x86, 0x2c, 0x19, 0x23, 0x06,
    0x3c, 0x33, 0x4b, 0x09, 0xab, 0x1d, 0xf3, 0xe7, 0x59, 0xc6, 0xe8, 0x1a, 0x1a, 0x46, 0xa7, 0xbe,
    0xec, 0x10, 0x81, 0xdd, 0x34, 0x94, 0xcc, 0x10, 0x9c, 0x35, 0x8c, 0x89, 0x48, 0x10, 0xd8, 0x1f,
    0x81, 0x03, 0x0f, 0x3c, 0xac, 0x25, 0x4c, 0xe1, 0x22, 0xc8, 0xfe, 0xf5, 0x38, 0x23, 0xaa, 0xa7,
    0xc7, 0x0b, 0xde, 0xde, 0x0f, 0x03, 0xc6, 0x08, 0xc7, 0x2d, 0x9c, 0xfe, 0x43, 0x0e, 0x16, 0x9e,
    0x7f, 0x04, 0xc7, 0x3a, 0x57, 0xe1, 0x32, 0xdb, 0xfb, 0x74, 0x37, 0x6d, 0xbf, 0x02, 0x63, 0x59,
    0xba, 0xfa, 0x4a, 0x27, 0x15, 0x37, 0xee, 0x99, 0x4a, 0x96, 0x01, 0x1c, 0xa8, 0xa8, 0xeb, 0x68,
    0x0a, 0x15, 0xed, 0x11, 0x7f, 0xe7, 0xe7, 0x46, 0xdb, 0x14, 0xf4, 0xea, 0xd5, 0xff, 0x1f, 0x23,
    0x04, 0x06, 0x6e, 0x2b, 0xbb, 0xcc, 0x26, 0xec, 0xf8, 0xac, 0x1a, 0x4e, 0xa8, 0xac, 0x1c, 0xc0,
    0xd3, 0xe7, 0xe5, 0x18, 0x92, 0x45, 0x19, 0xfa, 0x4b, 0x81, 0x1a, 0x10, 0x25, 0xd3, 0x91, 0x0b,
    0xbd, 0x0e, 0xeb, 0xe0, 0x4c, 0x35, 0x05, 0x39, 0xd4, 0x71, 0x12, 0xe7, 0x2e, 0x2a, 0x97, 0xd1,
    0xff, 0x02, 0xfc, 0xd3, 0xc4, 0x47, 0x0e, 0xe4, 0x7f, 0xcd, 0xdc, 0x07, 0xf6, 0xf9, 0x09, 0xae,
    0xe9, 0xc8, 0xe9, 0x98, 0xde, 0xe7, 0xba, 0x1a, 0xd0, 0x2e, 0xa8, 0x12, 0x49, 0x36, 0xdd, 0xf9,
    0xb1, 0x2d, 0xcf, 0x00, 0x0e, 0xe8, 0xec, 0x0f, 0x37, 0x13, 0xe9, 0xf0, 0x25, 0xf2, 0xe8, 0xca,
    0xe6, 0x54, 0x7f, 0x0c, 0x05, 0x1b, 0xc7, 0x04, 0x16, 0xd6, 0xf9, 0x18, 0x20, 0x01, 0x1b, 0xf9,
    0xc5, 0xc2, 0x17, 0xd2, 0xef, 0x21, 0xc0, 0x1c, 0xe3, 0xc8, 0x0c, 0x07, 0xed, 0x42, 0xc6, 0xbb,
    0xc8, 0xa5, 0xfd, 0xd6, 0x4f, 0xdb, 0x3b, 0x0e, 0xcf, 0x02, 0x81, 0xd1, 0xfc, 0x02, 0xce, 0x03,
    0x29, 0x19, 0xee, 0x07, 0x6d, 0xa4, 0xe8, 0xf8, 0xa8, 0x7e, 0x59, 0x27, 0xbd, 0xd9, 0x1f, 0x7f,
    0x38, 0xe5, 0x2b, 0x4b, 0xe8, 0x19, 0x37, 0xef, 0xe7, 0xc6, 0x71, 0x26, 0xe2, 0xf3, 0x03, 0xf6,
    0x2f, 0x23, 0xae, 0x3b, 0x48, 0xdc, 0xcc, 0x78, 0x03, 0x73, 0x21, 0xfe, 0xd9, 0x7f, 0x3e, 0x48,
    0x32, 0xf2, 0x67, 0x22, 0xbd, 0x09, 0xfb, 0xf6, 0xb7, 0xac, 0x48, 0x11, 0xdc, 0xfb, 0x25, 0xbb,
    0x0b, 0x11, 0xfc, 0x04, 0x33, 0xf8, 0x2f, 0x06, 0xe8, 0x7f, 0x0b, 0xf9, 0xcb, 0xd9, 0x5e, 0x24,
    0xe1, 0x29, 0x40, 0x49, 0xd5, 0xf1, 0x37, 0x23, 0xe3, 0xe8, 0x31, 0xe5, 0xe3, 0xec, 0x43, 0x1a,
    0x10, 0x74, 0xbe, 0xb9, 0xb7, 0xd0, 0x3e, 0x4b, 0xdb, 0x01, 0xdc, 0x05, 0x29, 0x37, 0xbf, 0x0e,
    0xe2, 0xd8, 0x81, 0xfa, 0xc4, 0x4e, 0xb1, 0x6f, 0xfa, 0x24, 0xcc, 0xbd, 0x2e, 0xd1, 0x8b, 0x0a,
    0x71, 0x20, 0x2d, 0x40, 0x1f, 0xea, 0xcd, 0xee, 0xe6, 0x49, 0x05, 0xf7, 0x94, 0xea, 0x67, 0xc0,
    0x7f, 0x30, 0x23, 0x10, 0xce, 0x27, 0xee, 0xba, 0x7e, 0xdb, 0x19, 0x12, 0x0f, 0xfe, 0xe8, 0x54,
    0xb5, 0x36, 0x0e, 0x17, 0xd2, 0x5b, 0x1d, 0xe3, 0x5a, 0xc6, 0x06, 0x19, 0x3b, 0x1a, 0x0e, 0xc5,
    0xe0, 0xfb, 0x81, 0x9c, 0xf1, 0x29, 0x1e, 0xea, 0xa0, 0x04, 0xea, 0xb1, 0x35, 0x0e, 0xa0, 0x86,
    0xb0, 0xb1, 0x53, 0xef, 0x97, 0x65, 0xe0, 0x18, 0xe0, 0xd1, 0x15, 0x53, 0x04, 0xe1, 0x0d, 0xbf,
    0xfe, 0xfe, 0xc6, 0xb0, 0x4b, 0x1a, 0x9d, 0x5b, 0xbb, 0x24, 0x81, 0xe0, 0x13, 0x04, 0x1d, 0xf0,
    0xc7, 0xf6, 0x4d, 0xe8, 0x1b, 0xd1, 0x2e, 0x09, 0x12, 0xdc, 0xee, 0x33, 0xe9, 0xec, 0x18, 0xf4,
    0x8d, 0xf8, 0x4d, 0xbe, 0x81, 0xf5, 0xcb, 0xe4, 0xfb, 0x9d, 0x8b, 0x46, 0xbd, 0x20, 0x00, 0xe0,
    0xe7, 0x13, 0x57, 0x2f, 0xae, 0x55, 0xcc, 0xe9, 0x98, 0xb0, 0x71, 0x5c, 0x82, 0xd8, 0xab, 0xf5,
    0x9a, 0xba, 0x4a, 0x88, 0x69, 0x87, 0xe5, 0x37, 0xa8, 0x6a, 0xb5, 0x81, 0x66, 0x2c, 0x2d, 0xe1,
    0x28, 0xb1, 0x03, 0x3e, 0x64, 0x9e, 0x06, 0x14, 0xa6, 0xf4, 0xb9, 0x2d, 0xad, 0x2a, 0x39, 0x05,
    0x7b, 0xf7, 0x44, 0xf6, 0xba, 0xd7, 0x10, 0xcf, 0xfa, 0xec, 0x44, 0x7f, 0xfb, 0xbd, 0xff, 0x18,
    0x13, 0x60, 0x32, 0xb0, 0xa1, 0x38, 0x23, 0x4c, 0x31, 0xfa, 0xe0, 0xbf, 0x27, 0xdd, 0x29, 0xa1,
    0xb2, 0xe7, 0x8f, 0xe3, 0x51, 0xc7, 0xa5, 0xe3, 0xc7, 0x3c, 0x81, 0x8d, 0x31, 0x56, 0x96, 0x04,
    0x37, 0x12, 0x94, 0x49, 0x7b, 0xc7, 0xbd, 0x0b, 0xe3, 0x65, 0xf7, 0x81, 0xa7, 0x0a, 0x4d, 0x56,
    0x1f, 0xdb, 0x0d, 0x2c, 0xae, 0x06, 0x45, 0xf1, 0x2f, 0x1b, 0xef, 0x64, 0x59, 0x88, 0x37, 0x31,
    0x8b, 0x12, 0x38, 0xf8, 0xb6, 0x7f, 0x16, 0x20, 0xed, 0x28, 0x12, 0xfc, 0x47, 0xc7, 0x9e, 0x13,
    0xbe, 0xfb, 0xa4, 0xe1, 0x4b, 0x6c, 0xaa, 0xfe, 0xc5, 0x57, 0xdd, 0xdc, 0x4e, 0x03, 0xfb, 0x0b,
    0x7f, 0x11, 0xf6, 0xf9, 0x0c, 0xe4, 0xd1, 0x11, 0x8c, 0x3c, 0xbf, 0xd2, 0x85, 0x2e, 0x66, 0x24,
    0xea, 0x1b, 0x20, 0x3a, 0x3a, 0x09, 0xcb, 0x03, 0x57, 0x05, 0x3a, 0x5f, 0x02, 0xb8, 0x43, 0x16,
    0x7f, 0x0f, 0xa4, 0xd2, 0x23, 0xa1, 0x24, 0xae, 0xe8, 0xfe, 0x23, 0xf7, 0xe4, 0x60, 0x73, 0xd4,
    0x43, 0x03, 0xf3, 0x04, 0xcd, 0x24, 0x4a, 0xe4, 0x0e, 0xa4, 0x33, 0x42, 0xd5, 0x0d, 0x20, 0xed,
    0x61, 0xa3, 0x36, 0xd3, 0x27, 0x34, 0xd0, 0xe0, 0x3c, 0x55, 0xd7, 0xe6, 0x9c, 0x0c, 0x48, 0x13,
    0x53, 0x62, 0xf1, 0x1e, 0x81, 0x2e, 0x24, 0x98, 0x23, 0xcd, 0x24, 0xea, 0xfd, 0x93, 0x7b, 0x18,
    0xc5, 0x35, 0xf0, 0xab, 0xb0, 0x2a, 0x25, 0x3f, 0x04, 0x05, 0xee, 0x87, 0x0b, 0xd5, 0xa9, 0x35,
    0xc2, 0xd5, 0xbc, 0x08, 0x19, 0x51, 0xda, 0xef, 0x1f, 0x28, 0x81, 0xd1, 0xd5, 0x67, 0xf2, 0xd0,
    0x7f, 0xf1, 0xd0, 0x4b, 0x7a, 0x99, 0xfc, 0x0f, 0x1c, 0x3c, 0xf9, 0x39, 0xb0, 0x32, 0x40, 0x33,
    0x3d, 0x10, 0x32, 0x21, 0xa9, 0xfd, 0x2c, 0x0f, 0x3e, 0xd5, 0x00, 0x1e, 0xe2, 0xbd, 0xea, 0x4e,
    0x2a, 0xd5, 0xcc, 0x0e, 0x4d, 0x0e, 0xf2, 0xcb, 0x27, 0x7f, 0x1f, 0xc6, 0xc4, 0x25, 0x79, 0x4b,
    0xe7, 0x1f, 0x16, 0x50, 0x08, 0x38, 0x3a, 0x26, 0xd3, 0xde, 0x39, 0x35, 0xce, 0xeb, 0x08, 0xf1,
    0x59, 0x0a, 0xef, 0x12, 0x6b, 0xe0, 0xe9, 0x02, 0xd1, 0x37, 0xa8, 0xfe, 0x04, 0x30, 0x40, 0x2c,
    0x23, 0x23, 0x28, 0x3b, 0xdd, 0x10, 0xf4, 0xe9, 0x28, 0xf1, 0x7f, 0x36, 0xe3, 0xb4, 0x10, 0xdc,
    0xe2, 0xfe, 0xff, 0xff, 0x04, 0x00, 0x00, 0x00, 0xa0, 0x00, 0x00, 0x00, 0xd2, 0x1f, 0x00, 0x00,
    0x1f, 0x18, 0x00, 0x00, 0xdf, 0xda, 0xff, 0xff, 0xca, 0x1a, 0x00, 0x00, 0xf0, 0xe5, 0xff, 0xff,
    0x45, 0x18, 0x00, 0x00, 0xda, 0xee, 0xff, 0xff, 0x3d, 0xf3, 0xff, 0xff, 0xe0, 0xef, 0xff, 0xff,
    0xd5, 0xe7, 0xff, 0xff, 0x91, 0x0d, 0x00, 0x00, 0x32, 0x13, 0x00, 0x00, 0x88, 0x1d, 0x00, 0x00,
    0x87, 0x1d, 0x00, 0x00, 0x52, 0xe7, 0xff, 0xff, 0x73, 0xf2, 0xff, 0xff, 0xf3, 0x0a, 0x00, 0x00,
    0x2b, 0x13, 0x00, 0x00, 0x7f, 0xf6, 0xff, 0xff, 0xb6, 0x21, 0x00, 0x00, 0x5e, 0xe4, 0xff, 0xff,
    0x1f, 0xe6, 0xff, 0xff, 0x71, 0xe6, 0xff, 0xff, 0x63, 0x26, 0x00, 0x00, 0xbe, 0xe1, 0xff, 0xff,
    0xf4, 0x1c, 0x00, 0x00, 0x6e, 0x1b, 0x00, 0x00, 0x71, 0x19, 0x00, 0x00, 0xf9, 0x12, 0x00, 0x00,
    0x18, 0xf1, 0xff, 0xff, 0x08, 0x22, 0x00, 0x00, 0x0e, 0xe8, 0xff, 0xff, 0xf1, 0x0a, 0x00, 0x00,
    0x12, 0xed, 0xff, 0xff, 0x78, 0xfb, 0xff, 0xff, 0x82, 0xf0, 0xff, 0xff, 0x44, 0x21, 0x00, 0x00,
    0xbe, 0xe1, 0xff, 0xff, 0xa1, 0xe3, 0xff, 0xff, 0x5f, 0xe1, 0xff, 0xff, 0x8e, 0xff, 0xff, 0xff,
    0x04, 0x00, 0x00, 0x00, 0x50, 0x00, 0x00, 0x00, 0xeb, 0x0c, 0xdd, 0x28, 0xf8, 0xfb, 0xe4, 0xbb,
    0x30, 0xb6, 0x57, 0xec, 0x44, 0xe4, 0xee, 0x32, 0x10, 0x21, 0xa4, 0x05, 0xe7, 0x2f, 0x32, 0x23,
    0x2a, 0x49, 0x25, 0xed, 0xd8, 0x1f, 0xef, 0xa7, 0x15, 0xee, 0x2b, 0x06, 0x95, 0xf3, 0x90, 0x15,
    0xc2, 0xe5, 0x19, 0xf7, 0x30, 0xcf, 0x0c, 0xd3, 0x3f, 0xe2, 0x39, 0xc6, 0x20, 0xbf, 0x00, 0x66,
    0xda, 0xf7, 0xa7, 0xdd, 0x07, 0x58, 0x5b, 0x11, 0x53, 0x0d, 0xf7, 0xf2, 0xaf, 0x49, 0xd3, 0xd8,
    0xde, 0x1b, 0x4a, 0x1e, 0x81, 0x2a, 0xb4, 0x3f, 0xea, 0xff, 0xff, 0xff, 0x04, 0x00, 0x00, 0x00,
    0x08, 0x00, 0x00, 0x00, 0xd7, 0x00, 0x00, 0x00, 0x29, 0xff, 0xff, 0xff, 0x00, 0x00, 0x06, 0x00,
    0x08, 0x00, 0x04, 0x00, 0x06, 0x00, 0x00, 0x00, 0x04, 0x00, 0x00, 0x00, 0x08, 0x00, 0x00, 0x00,
    0x01, 0x00, 0x00, 0x00, 0x02, 0x00, 0x00, 0x00, 0x8c, 0xdb, 0xff, 0xff, 0x90, 0xdb, 0xff, 0xff,
    0x0f, 0x00, 0x00, 0x00, 0x4d, 0x4c, 0x49, 0x52, 0x20, 0x43, 0x6f, 0x6e, 0x76, 0x65, 0x72, 0x74,
    0x65, 0x64, 0x2e, 0x00, 0x01, 0x00, 0x00, 0x00, 0x14, 0x00, 0x00, 0x00, 0x00, 0x00, 0x0e, 0x00,
    0x18, 0x00, 0x14, 0x00, 0x10, 0x00, 0x0c, 0x00, 0x08, 0x00, 0x04, 0x00, 0x0e, 0x00, 0x00, 0x00,
    0x14, 0x00, 0x00, 0x00, 0x1c, 0x00, 0x00, 0x00, 0x9c, 0x02, 0x00, 0x00, 0xa0, 0x02, 0x00, 0x00,
    0xa4, 0x02, 0x00, 0x00, 0x04, 0x00, 0x00, 0x00, 0x6d, 0x61, 0x69, 0x6e, 0x00, 0x00, 0x00, 0x00,
    0x09, 0x00, 0x00, 0x00, 0x38, 0x02, 0x00, 0x00, 0xd0, 0x01, 0x00, 0x00, 0x78, 0x01, 0x00, 0x00,
    0x30, 0x01, 0x00, 0x00, 0xf4, 0x00, 0x00, 0x00, 0xac, 0x00, 0x00, 0x00, 0x70, 0x00, 0x00, 0x00,
    0x3c, 0x00, 0x00, 0x00, 0x04, 0x00, 0x00, 0x00, 0x5e, 0xfe, 0xff, 0xff, 0x14, 0x00, 0x00, 0x00,
    0x00, 0x00, 0x00, 0x08, 0x10, 0x00, 0x00, 0x00, 0x14, 0x00, 0x00, 0x00, 0x03, 0x00, 0x00, 0x00,
    0x24, 0xdc, 0xff, 0xff, 0x01, 0x00, 0x00, 0x00, 0x1a, 0x00, 0x00, 0x00, 0x03, 0x00, 0x00, 0x00,
    0x19, 0x00, 0x00, 0x00, 0x03, 0x00, 0x00, 0x00, 0x02, 0x00, 0x00, 0x00, 0x92, 0xfe, 0xff, 0xff,
    0x14, 0x00, 0x00, 0x00, 0x00, 0x00, 0x00, 0x1b, 0x10, 0x00, 0x00, 0x00, 0x14, 0x00, 0x00, 0x00,
    0x02, 0x00, 0x00, 0x00, 0x58, 0xdc, 0xff, 0xff, 0x01, 0x00, 0x00, 0x00, 0x19, 0x00, 0x00, 0x00,
    0x02, 0x00, 0x00, 0x00, 0x18, 0x00, 0x00, 0x00, 0x01, 0x00, 0x00, 0x00, 0x5e, 0xfe, 0xff, 0xff,
    0x10, 0x00, 0x00, 0x00, 0x00, 0x00, 0x00, 0x01, 0x14, 0x00, 0x00, 0x00, 0x18, 0x00, 0x00, 0x00,
    0x06, 0xff, 0xff, 0xff, 0x01, 0x00, 0x00, 0x00, 0x01, 0x00, 0x00, 0x00, 0x01, 0x00, 0x00, 0x00,
    0x18, 0x00, 0x00, 0x00, 0x03, 0x00, 0x00, 0x00, 0x17, 0x00, 0x00, 0x00, 0x05, 0x00, 0x00, 0x00,
    0x04, 0x00, 0x00, 0x00, 0xfa, 0xfe, 0xff, 0xff, 0x14, 0x00, 0x00, 0x00, 0x00, 0x00, 0x00, 0x02,
    0x20, 0x00, 0x00, 0x00, 0x24, 0x00, 0x00, 0x00, 0x01, 0x00, 0x00, 0x00, 0xea, 0xfe, 0xff, 0xff,
    0x00, 0x00, 0x00, 0x03, 0x01, 0x00, 0x00, 0x00, 0x02, 0x00, 0x00, 0x00, 0x02, 0x00, 0x00, 0x00,
    0x01, 0x00, 0x00, 0x00, 0x17, 0x00, 0x00, 0x00, 0x03, 0x00, 0x00, 0x00, 0x16, 0x00, 0x00, 0x00,
    0x07, 0x00, 0x00, 0x00, 0x06, 0x00, 0x00, 0x00, 0xda, 0xfe, 0xff, 0xff, 0x10, 0x00, 0x00, 0x00,
    0x00, 0x00, 0x00, 0x01, 0x14, 0x00, 0x00, 0x00, 0x18, 0x00, 0x00, 0x00, 0x82, 0xff, 0xff, 0xff,
    0x01, 0x00, 0x00, 0x00, 0x01, 0x00, 0x00, 0x00, 0x01, 0x00, 0x00, 0x00, 0x16, 0x00, 0x00, 0x00,
    0x03, 0x00, 0x00, 0x00, 0x15, 0x00, 0x00, 0x00, 0x09, 0x00, 0x00, 0x00, 0x08, 0x00, 0x00, 0x00,
    0x76, 0xff, 0xff, 0xff, 0x14, 0x00, 0x00, 0x00, 0x00, 0x00, 0x00, 0x02, 0x20, 0x00, 0x00, 0x00,
    0x24, 0x00, 0x00, 0x00, 0x01, 0x00, 0x00, 0x00, 0x66, 0xff, 0xff, 0xff, 0x00, 0x00, 0x00, 0x03,
    0x01, 0x00, 0x00, 0x00, 0x02, 0x00, 0x00, 0x00, 0x02, 0x00, 0x00, 0x00, 0x01, 0x00, 0x00, 0x00,
    0x15, 0x00, 0x00, 0x00, 0x03, 0x00, 0x00, 0x00, 0x14, 0x00, 0x00, 0x00, 0x0b, 0x00, 0x00, 0x00,
    0x0a, 0x00, 0x00, 0x00, 0x56, 0xff, 0xff, 0xff, 0x1c, 0x00, 0x00, 0x00, 0x00, 0x00, 0x00, 0x01,
    0x20, 0x00, 0x00, 0x00, 0x24, 0x00, 0x00, 0x00, 0x00, 0x00, 0x0a, 0x00, 0x0c, 0x00, 0x00, 0x00,
    0x08, 0x00, 0x04, 0x00, 0x0a, 0x00, 0x00, 0x00, 0x01, 0x00, 0x00, 0x00, 0x01, 0x00, 0x00, 0x00,
    0x01, 0x00, 0x00, 0x00, 0x14, 0x00, 0x00, 0x00, 0x03, 0x00, 0x00, 0x00, 0x13, 0x00, 0x00, 0x00,
    0x0d, 0x00, 0x00, 0x00, 0x0c, 0x00, 0x00, 0x00, 0x00, 0x00, 0x0e, 0x00, 0x1a, 0x00, 0x14, 0x00,
    0x10, 0x00, 0x0c, 0x00, 0x0b, 0x00, 0x04, 0x00, 0x0e, 0x00, 0x00, 0x00, 0x24, 0x00, 0x00, 0x00,
    0x00, 0x00, 0x00, 0x02, 0x30, 0x00, 0x00, 0x00, 0x34, 0x00, 0x00, 0x00, 0x01, 0x00, 0x00, 0x00,
    0x00, 0x00, 0x0e, 0x00, 0x14, 0x00, 0x00, 0x00, 0x10, 0x00, 0x0c, 0x00, 0x08, 0x00, 0x07, 0x00,
    0x0e, 0x00, 0x00, 0x00, 0x00, 0x00, 0x00, 0x03, 0x01, 0x00, 0x00, 0x00, 0x02, 0x00, 0x00, 0x00,
    0x02, 0x00, 0x00, 0x00, 0x01, 0x00, 0x00, 0x00, 0x13, 0x00, 0x00, 0x00, 0x03, 0x00, 0x00, 0x00,
    0x12, 0x00, 0x00, 0x00, 0x0f, 0x00, 0x00, 0x00, 0x0e, 0x00, 0x00, 0x00, 0x00, 0x00, 0x0e, 0x00,
    0x14, 0x00, 0x00, 0x00, 0x10, 0x00, 0x0c, 0x00, 0x0b, 0x00, 0x04, 0x00, 0x0e, 0x00, 0x00, 0x00,
    0x1c, 0x00, 0x00, 0x00, 0x00, 0x00, 0x00, 0x01, 0x24, 0x00, 0x00, 0x00, 0x28, 0x00, 0x00, 0x00,
    0x0c, 0x00, 0x10, 0x00, 0x00, 0x00, 0x0c, 0x00, 0x08, 0x00, 0x07, 0x00, 0x0c, 0x00, 0x00, 0x00,
    0x00, 0x00, 0x00, 0x03, 0x02, 0x00, 0x00, 0x00, 0x02, 0x00, 0x00, 0x00, 0x01, 0x00, 0x00, 0x00,
    0x12, 0x00, 0x00, 0x00, 0x03, 0x00, 0x00, 0x00, 0x00, 0x00, 0x00, 0x00, 0x11, 0x00, 0x00, 0x00,
    0x10, 0x00, 0x00, 0x00, 0x01, 0x00, 0x00, 0x00, 0x1a, 0x00, 0x00, 0x00, 0x01, 0x00, 0x00, 0x00,
    0x00, 0x00, 0x00, 0x00, 0x1b, 0x00, 0x00, 0x00, 0xe0, 0x21, 0x00, 0x00, 0x64, 0x21, 0x00, 0x00,
    0xd4, 0x20, 0x00, 0x00, 0x68, 0x20, 0x00, 0x00, 0x0c, 0x1e, 0x00, 0x00, 0xb0, 0x1b, 0x00, 0x00,
    0xb4, 0x19, 0x00, 0x00, 0x70, 0x17, 0x00, 0x00, 0x74, 0x15, 0x00, 0x00, 0x78, 0x13, 0x00, 0x00,
    0xdc, 0x11, 0x00, 0x00, 0x0c, 0x10, 0x00, 0x00, 0x74, 0x0e, 0x00, 0x00, 0xd8, 0x0c, 0x00, 0x00,
    0x9c, 0x0b, 0x00, 0x00, 0x2c, 0x0a, 0x00, 0x00, 0x04, 0x09, 0x00, 0x00, 0xd8, 0x07, 0x00, 0x00,
    0xd4, 0x06, 0x00, 0x00, 0xd8, 0x05, 0x00, 0x00, 0xd4, 0x04, 0x00, 0x00, 0xd8, 0x03, 0x00, 0x00,
    0xd4, 0x02, 0x00, 0x00, 0xd8, 0x01, 0x00, 0x00, 0x04, 0x01, 0x00, 0x00, 0x80, 0x00, 0x00, 0x00,
    0x04, 0x00, 0x00, 0x00, 0xa2, 0xde, 0xff, 0xff, 0x00, 0x00, 0x00, 0x01, 0x18, 0x00, 0x00, 0x00,
    0x20, 0x00, 0x00, 0x00, 0x3c, 0x00, 0x00, 0x00, 0x1b, 0x00, 0x00, 0x00, 0x00, 0x00, 0x00, 0x09,
    0x50, 0x00, 0x00, 0x00, 0x02, 0x00, 0x00, 0x00, 0xff, 0xff, 0xff, 0xff, 0x02, 0x00, 0x00, 0x00,
    0x84, 0xde, 0xff, 0xff, 0x08, 0x00, 0x00, 0x00, 0x10, 0x00, 0x00, 0x00, 0x01, 0x00, 0x00, 0x00,
    0x00, 0x00, 0x00, 0x00, 0x00, 0x00, 0x00, 0x00, 0x01, 0x00, 0x00, 0x00, 0xe4, 0xab, 0x9a, 0x3c,
    0x19, 0x00, 0x00, 0x00, 0x53, 0x74, 0x61, 0x74, 0x65, 0x66, 0x75, 0x6c, 0x50, 0x61, 0x72, 0x74,
    0x69, 0x74, 0x69, 0x6f, 0x6e, 0x65, 0x64, 0x43, 0x61, 0x6c, 0x6c, 0x3a, 0x30, 0x00, 0x00, 0x00,
    0x02, 0x00, 0x00, 0x00, 0x01, 0x00, 0x00, 0x00, 0x02, 0x00, 0x00, 0x00, 0x1a, 0xdf, 0xff, 0xff,
    0x00, 0x00, 0x00, 0x01, 0x18, 0x00, 0x00, 0x00, 0x20, 0x00, 0x00, 0x00, 0x40, 0x00, 0x00, 0x00,
    0x1a, 0x00, 0x00, 0x00, 0x00, 0x00, 0x00, 0x09, 0x58, 0x00, 0x00, 0x00, 0x02, 0x00, 0x00, 0x00,
    0xff, 0xff, 0xff, 0xff, 0x28, 0x00, 0x00, 0x00, 0xfc, 0xde, 0xff, 0xff, 0x08, 0x00, 0x00, 0x00,
    0x14, 0x00, 0x00, 0x00, 0x01, 0x00, 0x00, 0x00, 0x05, 0x00, 0x00, 0x00, 0x00, 0x00, 0x00, 0x00,
    0x00, 0x00, 0x00, 0x00, 0x01, 0x00, 0x00, 0x00, 0x5a, 0xa2, 0x1f, 0x3c, 0x1c, 0x00, 0x00, 0x00,
    0x45, 0x66, 0x66, 0x69, 0x63, 0x69, 0x65, 0x6e, 0x74, 0x4e, 0x65, 0x74, 0x56, 0x32, 0x2f, 0x74,
    0x6f, 0x70, 0x2e, 0x70, 0x6f, 0x6f, 0x6c, 0x2f, 0x4d, 0x65, 0x61, 0x6e, 0x00, 0x00, 0x00, 0x00,
    0x02, 0x00, 0x00, 0x00, 0x01, 0x00, 0x00, 0x00, 0x28, 0x00, 0x00, 0x00, 0x9a, 0xdf, 0xff, 0xff,
    0x00, 0x00, 0x00, 0x01, 0x18, 0x00, 0x00, 0x00, 0x28, 0x00, 0x00, 0x00, 0x44, 0x00, 0x00, 0x00,
    0x19, 0x00, 0x00, 0x00, 0x00, 0x00, 0x00, 0x09, 0xa0, 0x00, 0x00, 0x00, 0x04, 0x00, 0x00, 0x00,
    0xff, 0xff, 0xff, 0xff, 0x04, 0x00, 0x00, 0x00, 0x04, 0x00, 0x00, 0x00, 0x28, 0x00, 0x00, 0x00,
    0x84, 0xdf, 0xff, 0xff, 0x08, 0x00, 0x00, 0x00, 0x10, 0x00, 0x00, 0x00, 0x01, 0x00, 0x00, 0x00,
    0x06, 0x00, 0x00, 0x00, 0x00, 0x00, 0x00, 0x00, 0x01, 0x00, 0x00, 0x00, 0xf5, 0x0e, 0x25, 0x3d,
    0x63, 0x00, 0x00, 0x00, 0x45, 0x66, 0x66, 0x69, 0x63, 0x69, 0x65, 0x6e, 0x74, 0x4e, 0x65, 0x74,
    0x56, 0x32, 0x2f, 0x73, 0x74, 0x61, 0x67, 0x65, 0x33, 0x2e, 0x6d, 0x62, 0x63, 0x6f, 0x6e, 0x76,
    0x31, 0x2e, 0x72, 0x65, 0x64, 0x2e, 0x62, 0x6e, 0x2f, 0x46, 0x75, 0x73, 0x65, 0x64, 0x42, 0x61,
    0x74, 0x63, 0x68, 0x4e, 0x6f, 0x72, 0x6d, 0x56, 0x33, 0x3b, 0x45, 0x66, 0x66, 0x69, 0x63, 0x69,
    0x65, 0x6e, 0x74, 0x4e, 0x65, 0x74, 0x56, 0x32, 0x2f, 0x73, 0x74, 0x61, 0x67, 0x65, 0x33, 0x2e,
    0x6d, 0x62, 0x63, 0x6f, 0x6e, 0x76, 0x31, 0x2e, 0x72, 0x65, 0x64, 0x2e, 0x63, 0x6f, 0x6e, 0x76,
    0x2f, 0x43, 0x6f, 0x6e, 0x76, 0x32, 0x44, 0x00, 0x04, 0x00, 0x00, 0x00, 0x01, 0x00, 0x00, 0x00,
    0x04, 0x00, 0x00, 0x00, 0x04, 0x00, 0x00, 0x00, 0x28, 0x00, 0x00, 0x00, 0x6a, 0xe0, 0xff, 0xff,
    0x00, 0x00, 0x00, 0x01, 0x18, 0x00, 0x00, 0x00, 0x28, 0x00, 0x00, 0x00, 0x44, 0x00, 0x00, 0x00,
    0x18, 0x00, 0x00, 0x00, 0x00, 0x00, 0x00, 0x09, 0xc8, 0x00, 0x00, 0x00, 0x04, 0x00, 0x00, 0x00,
    0xff, 0xff, 0xff, 0xff, 0x04, 0x00, 0x00, 0x00, 0x04, 0x00, 0x00, 0x00, 0x20, 0x00, 0x00, 0x00,
    0x54, 0xe0, 0xff, 0xff, 0x08, 0x00, 0x00, 0x00, 0x10, 0x00, 0x00, 0x00, 0x01, 0x00, 0x00, 0x00,
    0x80, 0xff, 0xff, 0xff, 0xff, 0xff, 0xff, 0xff, 0x01, 0x00, 0x00, 0x00, 0xc1, 0xc0, 0xc0, 0x3c,
    0x8a, 0x00, 0x00, 0x00, 0x45, 0x66, 0x66, 0x69, 0x63, 0x69, 0x65, 0x6e, 0x74, 0x4e, 0x65, 0x74,
    0x56, 0x32, 0x2f, 0x73, 0x74, 0x61, 0x67, 0x65, 0x33, 0x2e, 0x6d, 0x62, 0x63, 0x6f, 0x6e, 0x76,
    0x31, 0x2e, 0x64, 0x70, 0x2e, 0x61, 0x63, 0x74, 0x2f, 0x52, 0x65, 0x6c, 0x75, 0x36, 0x3b, 0x45,
    0x66, 0x66, 0x69, 0x63, 0x69, 0x65, 0x6e, 0x74, 0x4e, 0x65, 0x74, 0x56, 0x32, 0x2f, 0x73, 0x74,
    0x61, 0x67, 0x65, 0x33, 0x2e, 0x6d, 0x62, 0x63, 0x6f, 0x6e, 0x76, 0x31, 0x2e, 0x64, 0x70, 0x2e,
    0x62, 0x6e, 0x2f, 0x46, 0x75, 0x73, 0x65, 0x64, 0x42, 0x61, 0x74, 0x63, 0x68, 0x4e, 0x6f, 0x72,
    0x6d, 0x56, 0x33, 0x3b, 0x45, 0x66, 0x66, 0x69, 0x63, 0x69, 0x65, 0x6e, 0x74, 0x4e, 0x65, 0x74,
    0x56, 0x32, 0x2f, 0x73, 0x74, 0x61, 0x67, 0x65, 0x33, 0x2e, 0x6d, 0x62, 0x63, 0x6f, 0x6e, 0x76,
    0x31, 0x2e, 0x64, 0x70, 0x2f, 0x64, 0x65, 0x70, 0x74, 0x68, 0x77, 0x69, 0x73, 0x65, 0x00, 0x00,
    0x04, 0x00, 0x00, 0x00, 0x01, 0x00, 0x00, 0x00, 0x04, 0x00, 0x00, 0x00, 0x04, 0x00, 0x00, 0x00,
    0x20, 0x00, 0x00, 0x00, 0x62, 0xe1, 0xff, 0xff, 0x00, 0x00, 0x00, 0x01, 0x18, 0x00, 0x00, 0x00,
    0x28, 0x00, 0x00, 0x00, 0x48, 0x00, 0x00, 0x00, 0x17, 0x00, 0x00, 0x00, 0x00, 0x00, 0x00, 0x09,
    0xd0, 0x00, 0x00, 0x00, 0x04, 0x00, 0x00, 0x00, 0xff, 0xff, 0xff, 0xff, 0x08, 0x00, 0x00, 0x00,
    0x08, 0x00, 0x00, 0x00, 0x20, 0x00, 0x00, 0x00, 0x4c, 0xe1, 0xff, 0xff, 0x08, 0x00, 0x00, 0x00,
    0x14, 0x00, 0x00, 0x00, 0x01, 0x00, 0x00, 0x00, 0x03, 0x00, 0x00, 0x00, 0x00, 0x00, 0x00, 0x00,
    0x00, 0x00, 0x00, 0x00, 0x01, 0x00, 0x00, 0x00, 0x41, 0x77, 0x58, 0x3d, 0x8e, 0x00, 0x00, 0x00,
    0x45, 0x66, 0x66, 0x69, 0x63, 0x69, 0x65, 0x6e, 0x74, 0x4e, 0x65, 0x74, 0x56, 0x32, 0x2f, 0x73,
    0x74, 0x61, 0x67, 0x65, 0x32, 0x2e, 0x6d, 0x62, 0x63, 0x6f, 0x6e, 0x76, 0x31, 0x2e, 0x72, 0x65,
    0x64, 0x2e, 0x62, 0x6e, 0x2f, 0x46, 0x75, 0x73, 0x65, 0x64, 0x42, 0x61, 0x74, 0x63, 0x68, 0x4e,
    0x6f, 0x72, 0x6d, 0x56, 0x33, 0x3b, 0x45, 0x66, 0x66, 0x69, 0x63, 0x69, 0x65, 0x6e, 0x74, 0x4e,
    0x65, 0x74, 0x56, 0x32, 0x2f, 0x73, 0x74, 0x61, 0x67, 0x65, 0x33, 0x2e, 0x6d, 0x62, 0x63, 0x6f,
    0x6e, 0x76, 0x31, 0x2e, 0x64, 0x70, 0x2f, 0x64, 0x65, 0x70, 0x74, 0x68, 0x77, 0x69, 0x73, 0x65,
    0x3b, 0x45, 0x66, 0x66, 0x69, 0x63, 0x69, 0x65, 0x6e, 0x74, 0x4e, 0x65, 0x74, 0x56, 0x32, 0x2f,
    0x73, 0x74, 0x61, 0x67, 0x65, 0x32, 0x2e, 0x6d, 0x62, 0x63, 0x6f, 0x6e, 0x76, 0x31, 0x2e, 0x72,
    0x65, 0x64, 0x2e, 0x63, 0x6f, 0x6e, 0x76, 0x2f, 0x43, 0x6f, 0x6e, 0x76, 0x32, 0x44, 0x00, 0x00,
    0x04, 0x00, 0x00, 0x00, 0x01, 0x00, 0x00, 0x00, 0x08, 0x00, 0x00, 0x00, 0x08, 0x00, 0x00, 0x00,
    0x20, 0x00, 0x00, 0x00, 0x62, 0xe2, 0xff, 0xff, 0x00, 0x00, 0x00, 0x01, 0x18, 0x00, 0x00, 0x00,
    0x28, 0x00, 0x00, 0x00, 0x44, 0x00, 0x00, 0x00, 0x16, 0x00, 0x00, 0x00, 0x00, 0x00, 0x00, 0x09,
    0xc8, 0x00, 0x00, 0x00, 0x04, 0x00, 0x00, 0x00, 0xff, 0xff, 0xff, 0xff, 0x08, 0x00, 0x00, 0x00,
    0x08, 0x00, 0x00, 0x00, 0x18, 0x00, 0x00, 0x00, 0x4c, 0xe2, 0xff, 0xff, 0x08, 0x00, 0x00, 0x00,
    0x10, 0x00, 0x00, 0x00, 0x01, 0x00, 0x00, 0x00, 0x80, 0xff, 0xff, 0xff, 0xff, 0xff, 0xff, 0xff,
    0x01, 0x00, 0x00, 0x00, 0xc1, 0xc0, 0xc0, 0x3c, 0x8a, 0x00, 0x00, 0x00, 0x45, 0x66, 0x66, 0x69,
    0x63, 0x69, 0x65, 0x6e, 0x74, 0x4e, 0x65, 0x74, 0x56, 0x32, 0x2f, 0x73, 0x74, 0x61, 0x67, 0x65,
    0x32, 0x2e, 0x6d, 0x62, 0x63, 0x6f, 0x6e, 0x76, 0x31, 0x2e, 0x64, 0x70, 0x2e, 0x61, 0x63, 0x74,
    0x2f, 0x52, 0x65, 0x6c, 0x75, 0x36, 0x3b, 0x45, 0x66, 0x66, 0x69, 0x63, 0x69, 0x65, 0x6e, 0x74,
    0x4e, 0x65, 0x74, 0x56, 0x32, 0x2f, 0x73, 0x74, 0x61, 0x67, 0x65, 0x32, 0x2e, 0x6d, 0x62, 0x63,
    0x6f, 0x6e, 0x76, 0x31, 0x2e, 0x64, 0x70, 0x2e, 0x62, 0x6e, 0x2f, 0x46, 0x75, 0x73, 0x65, 0x64,
    0x42, 0x61, 0x74, 0x63, 0x68, 0x4e, 0x6f, 0x72, 0x6d, 0x56, 0x33, 0x3b, 0x45, 0x66, 0x66, 0x69,
    0x63, 0x69, 0x65, 0x6e, 0x74, 0x4e, 0x65, 0x74, 0x56, 0x32, 0x2f, 0x73, 0x74, 0x61, 0x67, 0x65,
    0x32, 0x2e, 0x6d, 0x62, 0x63, 0x6f, 0x6e, 0x76, 0x31, 0x2e, 0x64, 0x70, 0x2f, 0x64, 0x65, 0x70,
    0x74, 0x68, 0x77, 0x69, 0x73, 0x65, 0x00, 0x00, 0x04, 0x00, 0x00, 0x00, 0x01, 0x00, 0x00, 0x00,
    0x08, 0x00, 0x00, 0x00, 0x08, 0x00, 0x00, 0x00, 0x18, 0x00, 0x00, 0x00, 0x5a, 0xe3, 0xff, 0xff,
    0x00, 0x00, 0x00, 0x01, 0x18, 0x00, 0x00, 0x00, 0x28, 0x00, 0x00, 0x00, 0x48, 0x00, 0x00, 0x00,
    0x15, 0x00, 0x00, 0x00, 0x00, 0x00, 0x00, 0x09, 0xd0, 0x00, 0x00, 0x00, 0x04, 0x00, 0x00, 0x00,
    0xff, 0xff, 0xff, 0xff, 0x10, 0x00, 0x00, 0x00, 0x10, 0x00, 0x00, 0x00, 0x18, 0x00, 0x00, 0x00,
    0x44, 0xe3, 0xff, 0xff, 0x08, 0x00, 0x00, 0x00, 0x14, 0x00, 0x00, 0x00, 0x01, 0x00, 0x00, 0x00,
    0xf3, 0xff, 0xff, 0xff, 0xff, 0xff, 0xff, 0xff, 0x00, 0x00, 0x00, 0x00, 0x01, 0x00, 0x00, 0x00,
    0xff, 0x66, 0x80, 0x3d, 0x8e, 0x00, 0x00, 0x00, 0x45, 0x66, 0x66, 0x69, 0x63, 0x69, 0x65, 0x6e,
    0x74, 0x4e, 0x65, 0x74, 0x56, 0x32, 0x2f, 0x73, 0x74, 0x61, 0x67, 0x65, 0x31, 0x2e, 0x6d, 0x62,
    0x63, 0x6f, 0x6e, 0x76, 0x31, 0x2e, 0x72, 0x65, 0x64, 0x2e, 0x62, 0x6e, 0x2f, 0x46, 0x75, 0x73,
    0x65, 0x64, 0x42, 0x61, 0x74, 0x63, 0x68, 0x4e, 0x6f, 0x72, 0x6d, 0x56, 0x33, 0x3b, 0x45, 0x66,
    0x66, 0x69, 0x63, 0x69, 0x65, 0x6e, 0x74, 0x4e, 0x65, 0x74, 0x56, 0x32, 0x2f, 0x73, 0x74, 0x61,
    0x67, 0x65, 0x32, 0x2e, 0x6d, 0x62, 0x63, 0x6f, 0x6e, 0x76, 0x31, 0x2e, 0x64, 0x70, 0x2f, 0x64,
    0x65, 0x70, 0x74, 0x68, 0x77, 0x69, 0x73, 0x65, 0x3b, 0x45, 0x66, 0x66, 0x69, 0x63, 0x69, 0x65,
    0x6e, 0x74, 0x4e, 0x65, 0x74, 0x56, 0x32, 0x2f, 0x73, 0x74, 0x61, 0x67, 0x65, 0x31, 0x2e, 0x6d,
    0x62, 0x63, 0x6f, 0x6e, 0x76, 0x31, 0x2e, 0x72, 0x65, 0x64, 0x2e, 0x63, 0x6f, 0x6e, 0x76, 0x2f,
    0x43, 0x6f, 0x6e, 0x76, 0x32, 0x44, 0x00, 0x00, 0x04, 0x00, 0x00, 0x00, 0x01, 0x00, 0x00, 0x00,
    0x10, 0x00, 0x00, 0x00, 0x10, 0x00, 0x00, 0x00, 0x18, 0x00, 0x00, 0x00, 0x5a, 0xe4, 0xff, 0xff,
    0x00, 0x00, 0x00, 0x01, 0x18, 0x00, 0x00, 0x00, 0x28, 0x00, 0x00, 0x00, 0x44, 0x00, 0x00, 0x00,
    0x14, 0x00, 0x00, 0x00, 0x00, 0x00, 0x00, 0x09, 0xc8, 0x00, 0x00, 0x00, 0x04, 0x00, 0x00, 0x00,
    0xff, 0xff, 0xff, 0xff, 0x10, 0x00, 0x00, 0x00, 0x10, 0x00, 0x00, 0x00, 0x10, 0x00, 0x00, 0x00,
    0x44, 0xe4, 0xff, 0xff, 0x08, 0x00, 0x00, 0x00, 0x10, 0x00, 0x00, 0x00, 0x01, 0x00, 0x00, 0x00,
    0x80, 0xff, 0xff, 0xff, 0xff, 0xff, 0xff, 0xff, 0x01, 0x00, 0x00, 0x00, 0xc1, 0xc0, 0xc0, 0x3c,
    0x8a, 0x00, 0x00, 0x00, 0x45, 0x66, 0x66, 0x69, 0x63, 0x69, 0x65, 0x6e, 0x74, 0x4e, 0x65, 0x74,
    0x56, 0x32, 0x2f, 0x73, 0x74, 0x61, 0x67, 0x65, 0x31, 0x2e, 0x6d, 0x62, 0x63, 0x6f, 0x6e, 0x76,
    0x31, 0x2e, 0x64, 0x70, 0x2e, 0x61, 0x63, 0x74, 0x2f, 0x52, 0x65, 0x6c, 0x75, 0x36, 0x3b, 0x45,
    0x66, 0x66, 0x69, 0x63, 0x69, 0x65, 0x6e, 0x74, 0x4e, 0x65, 0x74, 0x56, 0x32, 0x2f, 0x73, 0x74,
    0x61, 0x67, 0x65, 0x31, 0x2e, 0x6d, 0x62, 0x63, 0x6f, 0x6e, 0x76, 0x31, 0x2e, 0x64, 0x70, 0x2e,
    0x62, 0x6e, 0x2f, 0x46, 0x75, 0x73, 0x65, 0x64, 0x42, 0x61, 0x74, 0x63, 0x68, 0x4e, 0x6f, 0x72,
    0x6d, 0x56, 0x33, 0x3b, 0x45, 0x66, 0x66, 0x69, 0x63, 0x69, 0x65, 0x6e, 0x74, 0x4e, 0x65, 0x74,
    0x56, 0x32, 0x2f, 0x73, 0x74, 0x61, 0x67, 0x65, 0x31, 0x2e, 0x6d, 0x62, 0x63, 0x6f, 0x6e, 0x76,
    0x31, 0x2e, 0x64, 0x70, 0x2f, 0x64, 0x65, 0x70, 0x74, 0x68, 0x77, 0x69, 0x73, 0x65, 0x00, 0x00,
    0x04, 0x00, 0x00, 0x00, 0x01, 0x00, 0x00, 0x00, 0x10, 0x00, 0x00, 0x00, 0x10, 0x00, 0x00, 0x00,
    0x10, 0x00, 0x00, 0x00, 0x52, 0xe5, 0xff, 0xff, 0x00, 0x00, 0x00, 0x01, 0x18, 0x00, 0x00, 0x00,
    0x28, 0x00, 0x00, 0x00, 0x44, 0x00, 0x00, 0x00, 0x13, 0x00, 0x00, 0x00, 0x00, 0x00, 0x00, 0x09,
    0xd0, 0x00, 0x00, 0x00, 0x04, 0x00, 0x00, 0x00, 0xff, 0xff, 0xff, 0xff, 0x20, 0x00, 0x00, 0x00,
    0x20, 0x00, 0x00, 0x00, 0x10, 0x00, 0x00, 0x00, 0x3c, 0xe5, 0xff, 0xff, 0x08, 0x00, 0x00, 0x00,
    0x10, 0x00, 0x00, 0x00, 0x01, 0x00, 0x00, 0x00, 0x80, 0xff, 0xff, 0xff, 0xff, 0xff, 0xff, 0xff,
    0x01, 0x00, 0x00, 0x00, 0xc1, 0xc0, 0xc0, 0x3c, 0x90, 0x00, 0x00, 0x00, 0x45, 0x66, 0x66, 0x69,
    0x63, 0x69, 0x65, 0x6e, 0x74, 0x4e, 0x65, 0x74, 0x56, 0x32, 0x2f, 0x73, 0x74, 0x65, 0x6d, 0x2e,
    0x61, 0x63, 0x74, 0x2f, 0x52, 0x65, 0x6c, 0x75, 0x36, 0x3b, 0x45, 0x66, 0x66, 0x69, 0x63, 0x69,
    0x65, 0x6e, 0x74, 0x4e, 0x65, 0x74, 0x56, 0x32, 0x2f, 0x73, 0x74, 0x65, 0x6d, 0x2e, 0x62, 0x6e,
    0x2f, 0x46, 0x75, 0x73, 0x65, 0x64, 0x42, 0x61, 0x74, 0x63, 0x68, 0x4e, 0x6f, 0x72, 0x6d, 0x56,
    0x33, 0x3b, 0x45, 0x66, 0x66, 0x69, 0x63, 0x69, 0x65, 0x6e, 0x74, 0x4e, 0x65, 0x74, 0x56, 0x32,
    0x2f, 0x73, 0x74, 0x61, 0x67, 0x65, 0x31, 0x2e, 0x6d, 0x62, 0x63, 0x6f, 0x6e, 0x76, 0x31, 0x2e,
    0x64, 0x70, 0x2f, 0x64, 0x65, 0x70, 0x74, 0x68, 0x77, 0x69, 0x73, 0x65, 0x3b, 0x45, 0x66, 0x66,
    0x69, 0x63, 0x69, 0x65, 0x6e, 0x74, 0x4e, 0x65, 0x74, 0x56, 0x32, 0x2f, 0x73, 0x74, 0x65, 0x6d,
    0x2e, 0x63, 0x6f, 0x6e, 0x76, 0x2f, 0x43, 0x6f, 0x6e, 0x76, 0x32, 0x44, 0x00, 0x00, 0x00, 0x00,
    0x04, 0x00, 0x00, 0x00, 0x01, 0x00, 0x00, 0x00, 0x20, 0x00, 0x00, 0x00, 0x20, 0x00, 0x00, 0x00,
    0x10, 0x00, 0x00, 0x00, 0xca, 0xe6, 0xff, 0xff, 0x00, 0x00, 0x00, 0x01, 0x14, 0x00, 0x00, 0x00,
    0xe4, 0x00, 0x00, 0x00, 0x12, 0x00, 0x00, 0x00, 0x00, 0x00, 0x00, 0x09, 0xfc, 0x00, 0x00, 0x00,
    0x24, 0xe6, 0xff, 0xff, 0x08, 0x00, 0x00, 0x00, 0x88, 0x00, 0x00, 0x00, 0x10, 0x00, 0x00, 0x00,
    0x00, 0x00, 0x00, 0x00, 0x00, 0x00, 0x00, 0x00, 0x00, 0x00, 0x00, 0x00, 0x00, 0x00, 0x00, 0x00,
    0x00, 0x00, 0x00, 0x00, 0x00, 0x00, 0x00, 0x00, 0x00, 0x00, 0x00, 0x00, 0x00, 0x00, 0x00, 0x00,
    0x00, 0x00, 0x00, 0x00, 0x00, 0x00, 0x00, 0x00, 0x00, 0x00, 0x00, 0x00, 0x00, 0x00, 0x00, 0x00,
    0x00, 0x00, 0x00, 0x00, 0x00, 0x00, 0x00, 0x00, 0x00, 0x00, 0x00, 0x00, 0x00, 0x00, 0x00, 0x00,
    0x00, 0x00, 0x00, 0x00, 0x00, 0x00, 0x00, 0x00, 0x00, 0x00, 0x00, 0x00, 0x00, 0x00, 0x00, 0x00,
    0x00, 0x00, 0x00, 0x00, 0x00, 0x00, 0x00, 0x00, 0x00, 0x00, 0x00, 0x00, 0x00, 0x00, 0x00, 0x00,
    0x00, 0x00, 0x00, 0x00, 0x00, 0x00, 0x00, 0x00, 0x00, 0x00, 0x00, 0x00, 0x00, 0x00, 0x00, 0x00,
    0x00, 0x00, 0x00, 0x00, 0x00, 0x00, 0x00, 0x00, 0x00, 0x00, 0x00, 0x00, 0x00, 0x00, 0x00, 0x00,
    0x10, 0x00, 0x00, 0x00, 0x10, 0x5c, 0x04, 0x3c, 0x32, 0x0c, 0x8a, 0x3b, 0x10, 0x47, 0xd7, 0x3b,
    0x23, 0x39, 0x1c, 0x3c, 0x2e, 0xa5, 0xfa, 0x3b, 0x2a, 0x98, 0xed, 0x3b, 0xb4, 0x9e, 0x6e, 0x3b,
    0x1c, 0x90, 0x17, 0x3c, 0xfc, 0x2e, 0x60, 0x3b, 0xb2, 0xcd, 0x0c, 0x3c, 0xb8, 0x34, 0x43, 0x3c,
    0x18, 0x33, 0x35, 0x3c, 0x76, 0x66, 0x02, 0x3c, 0x97, 0xa1, 0x91, 0x3c, 0x1e, 0xac, 0x28, 0x3c,
    0x2d, 0x1f, 0xe9, 0x3a, 0x1f, 0x00, 0x00, 0x00, 0x45, 0x66, 0x66, 0x69, 0x63, 0x69, 0x65, 0x6e,
    0x74, 0x4e, 0x65, 0x74, 0x56, 0x32, 0x2f, 0x73, 0x74, 0x65, 0x6d, 0x2e, 0x63, 0x6f, 0x6e, 0x76,
    0x2f, 0x43, 0x6f, 0x6e, 0x76, 0x32, 0x44, 0x00, 0x04, 0x00, 0x00, 0x00, 0x10, 0x00, 0x00, 0x00,
    0x03, 0x00, 0x00, 0x00, 0x03, 0x00, 0x00, 0x00, 0x03, 0x00, 0x00, 0x00, 0xf2, 0xe7, 0xff, 0xff,
    0x00, 0x00, 0x00, 0x01, 0x14, 0x00, 0x00, 0x00, 0xe4, 0x00, 0x00, 0x00, 0x11, 0x00, 0x00, 0x00,
    0x00, 0x00, 0x00, 0x02, 0x04, 0x01, 0x00, 0x00, 0x4c, 0xe7, 0xff, 0xff, 0x08, 0x00, 0x00, 0x00,
    0x88, 0x00, 0x00, 0x00, 0x10, 0x00, 0x00, 0x00, 0x00, 0x00, 0x00, 0x00, 0x00, 0x00, 0x00, 0x00,
    0x00, 0x00, 0x00, 0x00, 0x00, 0x00, 0x00, 0x00, 0x00, 0x00, 0x00, 0x00, 0x00, 0x00, 0x00, 0x00,
    0x00, 0x00, 0x00, 0x00, 0x00, 0x00, 0x00, 0x00, 0x00, 0x00, 0x00, 0x00, 0x00, 0x00, 0x00, 0x00,
    0x00, 0x00, 0x00, 0x00, 0x00, 0x00, 0x00, 0x00, 0x00, 0x00, 0x00, 0x00, 0x00, 0x00, 0x00, 0x00,
    0x00, 0x00, 0x00, 0x00, 0x00, 0x00, 0x00, 0x00, 0x00, 0x00, 0x00, 0x00, 0x00, 0x00, 0x00, 0x00,
    0x00, 0x00, 0x00, 0x00, 0x00, 0x00, 0x00, 0x00, 0x00, 0x00, 0x00, 0x00, 0x00, 0x00, 0x00, 0x00,
    0x00, 0x00, 0x00, 0x00, 0x00, 0x00, 0x00, 0x00, 0x00, 0x00, 0x00, 0x00, 0x00, 0x00, 0x00, 0x00,
    0x00, 0x00, 0x00, 0x00, 0x00, 0x00, 0x00, 0x00, 0x00, 0x00, 0x00, 0x00, 0x00, 0x00, 0x00, 0x00,
    0x00, 0x00, 0x00, 0x00, 0x00, 0x00, 0x00, 0x00, 0x10, 0x00, 0x00, 0x00, 0xf1, 0xe0, 0x84, 0x38,
    0xc9, 0x96, 0x0a, 0x38, 0x30, 0x1f, 0x58, 0x38, 0xfa, 0xd5, 0x9c, 0x38, 0xd0, 0xa0, 0x7b, 0x38,
    0xb2, 0x86, 0x6e, 0x38, 0x43, 0x8e, 0xef, 0x37, 0x45, 0x28, 0x98, 0x38, 0x0d, 0x10, 0xe1, 0x37,
    0x0e, 0x5b, 0x8d, 0x38, 0xb1, 0xf8, 0xc3, 0x38, 0x02, 0xe9, 0xb5, 0x38, 0x60, 0xe9, 0x82, 0x38,
    0xcb, 0x33, 0x12, 0x39, 0x74, 0x55, 0xa9, 0x38, 0x37, 0x09, 0x6a, 0x37, 0x27, 0x00, 0x00, 0x00,
    0x45, 0x66, 0x66, 0x69, 0x63, 0x69, 0x65, 0x6e, 0x74, 0x4e, 0x65, 0x74, 0x56, 0x32, 0x2f, 0x73,
    0x74, 0x65, 0x6d, 0x2e, 0x62, 0x6e, 0x2f, 0x46, 0x75, 0x73, 0x65, 0x64, 0x42, 0x61, 0x74, 0x63,
    0x68, 0x4e, 0x6f, 0x72, 0x6d, 0x56, 0x33, 0x00, 0x01, 0x00, 0x00, 0x00, 0x10, 0x00, 0x00, 0x00,
    0x16, 0xe9, 0xff, 0xff, 0x00, 0x00, 0x00, 0x01, 0x14, 0x00, 0x00, 0x00, 0xe8, 0x00, 0x00, 0x00,
    0x10, 0x00, 0x00, 0x00, 0x00, 0x00, 0x00, 0x09, 0x40, 0x01, 0x00, 0x00, 0xda, 0xf2, 0xff, 0xff,
    0x03, 0x00, 0x00, 0x00, 0x08, 0x00, 0x00, 0x00, 0x88, 0x00, 0x00, 0x00, 0x10, 0x00, 0x00, 0x00,
    0x00, 0x00, 0x00, 0x00, 0x00, 0x00, 0x00, 0x00, 0x00, 0x00, 0x00, 0x00, 0x00, 0x00, 0x00, 0x00,
    0x00, 0x00, 0x00, 0x00, 0x00, 0x00, 0x00, 0x00, 0x00, 0x00, 0x00, 0x00, 0x00, 0x00, 0x00, 0x00,
    0x00, 0x00, 0x00, 0x00, 0x00, 0x00, 0x00, 0x00, 0x00, 0x00, 0x00, 0x00, 0x00, 0x00, 0x00, 0x00,
    0x00, 0x00, 0x00, 0x00, 0x00, 0x00, 0x00, 0x00, 0x00, 0x00, 0x00, 0x00, 0x00, 0x00, 0x00, 0x00,
    0x00, 0x00, 0x00, 0x00, 0x00, 0x00, 0x00, 0x00, 0x00, 0x00, 0x00, 0x00, 0x00, 0x00, 0x00, 0x00,
    0x00, 0x00, 0x00, 0x00, 0x00, 0x00, 0x00, 0x00, 0x00, 0x00, 0x00, 0x00, 0x00, 0x00, 0x00, 0x00,
    0x00, 0x00, 0x00, 0x00, 0x00, 0x00, 0x00, 0x00, 0x00, 0x00, 0x00, 0x00, 0x00, 0x00, 0x00, 0x00,
    0x00, 0x00, 0x00, 0x00, 0x00, 0x00, 0x00, 0x00, 0x00, 0x00, 0x00, 0x00, 0x00, 0x00, 0x00, 0x00,
    0x10, 0x00, 0x00, 0x00, 0x68, 0xc8, 0x81, 0x3b, 0x35, 0x4d, 0xfe, 0x3b, 0xe6, 0xc3, 0xc0, 0x3c,
    0x7b, 0x5d, 0x9c, 0x3b, 0x52, 0x05, 0x31, 0x3c, 0xa0, 0x49, 0xe2, 0x3b, 0xee, 0x30, 0x1c, 0x3c,
    0x66, 0x20, 0x39, 0x3c, 0x5e, 0x39, 0x0d, 0x3c, 0x3a, 0x88, 0x5b, 0x3c, 0xc2, 0x4a, 0xa3, 0x3b,
    0x19, 0x04, 0x42, 0x3b, 0x2e, 0x3c, 0x11, 0x3c, 0xe2, 0x3e, 0xcd, 0x3b, 0x91, 0xbf, 0x80, 0x3c,
    0x2e, 0x31, 0x6f, 0x3c, 0x5f, 0x00, 0x00, 0x00, 0x45, 0x66, 0x66, 0x69, 0x63, 0x69, 0x65, 0x6e,
    0x74, 0x4e, 0x65, 0x74, 0x56, 0x32, 0x2f, 0x73, 0x74, 0x61, 0x67, 0x65, 0x31, 0x2e, 0x6d, 0x62,
    0x63, 0x6f, 0x6e, 0x76, 0x31, 0x2e, 0x64, 0x70, 0x2e, 0x62, 0x6e, 0x2f, 0x46, 0x75, 0x73, 0x65,
    0x64, 0x42, 0x61, 0x74, 0x63, 0x68, 0x4e, 0x6f, 0x72, 0x6d, 0x56, 0x33, 0x3b, 0x45, 0x66, 0x66,
    0x69, 0x63, 0x69, 0x65, 0x6e, 0x74, 0x4e, 0x65, 0x74, 0x56, 0x32, 0x2f, 0x73, 0x74, 0x61, 0x67,
    0x65, 0x31, 0x2e, 0x6d, 0x62, 0x63, 0x6f, 0x6e, 0x76, 0x31, 0x2e, 0x64, 0x70, 0x2f, 0x64, 0x65,
    0x70, 0x74, 0x68, 0x77, 0x69, 0x73, 0x65, 0x00, 0x04, 0x00, 0x00, 0x00, 0x01, 0x00, 0x00, 0x00,
    0x03, 0x00, 0x00, 0x00, 0x03, 0x00, 0x00, 0x00, 0x10, 0x00, 0x00, 0x00, 0x82, 0xea, 0xff, 0xff,
    0x00, 0x00, 0x00, 0x01, 0x14, 0x00, 0x00, 0x00, 0xe8, 0x00, 0x00, 0x00, 0x0f, 0x00, 0x00, 0x00,
    0x00, 0x00, 0x00, 0x02, 0x18, 0x01, 0x00, 0x00, 0xdc, 0xe9, 0xff, 0xff, 0x08, 0x00, 0x00, 0x00,
    0x8c, 0x00, 0x00, 0x00, 0x10, 0x00, 0x00, 0x00, 0x00, 0x00, 0x00, 0x00, 0x00, 0x00, 0x00, 0x00,
    0x00, 0x00, 0x00, 0x00, 0x00, 0x00, 0x00, 0x00, 0x00, 0x00, 0x00, 0x00, 0x00, 0x00, 0x00, 0x00,
    0x00, 0x00, 0x00, 0x00, 0x00, 0x00, 0x00, 0x00, 0x00, 0x00, 0x00, 0x00, 0x00, 0x00, 0x00, 0x00,
    0x00, 0x00, 0x00, 0x00, 0x00, 0x00, 0x00, 0x00, 0x00, 0x00, 0x00, 0x00, 0x00, 0x00, 0x00, 0x00,
    0x00, 0x00, 0x00, 0x00, 0x00, 0x00, 0x00, 0x00, 0x00, 0x00, 0x00, 0x00, 0x00, 0x00, 0x00, 0x00,
    0x00, 0x00, 0x00, 0x00, 0x00, 0x00, 0x00, 0x00, 0x00, 0x00, 0x00, 0x00, 0x00, 0x00, 0x00, 0x00,
    0x00, 0x00, 0x00, 0x00, 0x00, 0x00, 0x00, 0x00, 0x00, 0x00, 0x00, 0x00, 0x00, 0x00, 0x00, 0x00,
    0x00, 0x00, 0x00, 0x00, 0x00, 0x00, 0x00, 0x00, 0x00, 0x00, 0x00, 0x00, 0x00, 0x00, 0x00, 0x00,
    0x00, 0x00, 0x00, 0x00, 0x00, 0x00, 0x00, 0x00, 0x00, 0x00, 0x00, 0x00, 0x10, 0x00, 0x00, 0x00,
    0x0c, 0x70, 0xc3, 0x38, 0x61, 0x79, 0x3f, 0x39, 0x11, 0x24, 0x11, 0x3a, 0xb0, 0x77, 0xeb, 0x38,
    0x47, 0x49, 0x85, 0x39, 0x9a, 0x61, 0x2a, 0x39, 0x9a, 0x34, 0x6b, 0x39, 0xb0, 0x63, 0x8b, 0x39,
    0xb8, 0xaa, 0x54, 0x39, 0x77, 0x4b, 0xa5, 0x39, 0x09, 0xe6, 0xf5, 0x38, 0x28, 0x15, 0x92, 0x38,
    0xfa, 0xb4, 0x5a, 0x39, 0xb3, 0x89, 0x1a, 0x39, 0x3b, 0xe1, 0xc1, 0x39, 0xfc, 0x18, 0xb4, 0x39,
    0x34, 0x00, 0x00, 0x00, 0x45, 0x66, 0x66, 0x69, 0x63, 0x69, 0x65, 0x6e, 0x74, 0x4e, 0x65, 0x74,
    0x56, 0x32, 0x2f, 0x73, 0x74, 0x61, 0x67, 0x65, 0x31, 0x2e, 0x6d, 0x62, 0x63, 0x6f, 0x6e, 0x76,
    0x31, 0x2e, 0x64, 0x70, 0x2e, 0x62, 0x6e, 0x2f, 0x46, 0x75, 0x73, 0x65, 0x64, 0x42, 0x61, 0x74,
    0x63, 0x68, 0x4e, 0x6f, 0x72, 0x6d, 0x56, 0x33, 0x00, 0x00, 0x00, 0x00, 0x01, 0x00, 0x00, 0x00,
    0x10, 0x00, 0x00, 0x00, 0xba, 0xeb, 0xff, 0xff, 0x00, 0x00, 0x00, 0x01, 0x14, 0x00, 0x00, 0x00,
    0x44, 0x01, 0x00, 0x00, 0x0e, 0x00, 0x00, 0x00, 0x00, 0x00, 0x00, 0x09, 0x6c, 0x01, 0x00, 0x00,
    0x14, 0xeb, 0xff, 0xff, 0x08, 0x00, 0x00, 0x00, 0xc8, 0x00, 0x00, 0x00, 0x18, 0x00, 0x00, 0x00,
    0x00, 0x00, 0x00, 0x00, 0x00, 0x00, 0x00, 0x00, 0x00, 0x00, 0x00, 0x00, 0x00, 0x00, 0x00, 0x00,
    0x00, 0x00, 0x00, 0x00, 0x00, 0x00, 0x00, 0x00, 0x00, 0x00, 0x00, 0x00, 0x00, 0x00, 0x00, 0x00,
    0x00, 0x00, 0x00, 0x00, 0x00, 0x00, 0x00, 0x00, 0x00, 0x00, 0x00, 0x00, 0x00, 0x00, 0x00, 0x00,
    0x00, 0x00, 0x00, 0x00, 0x00, 0x00, 0x00, 0x00, 0x00, 0x00, 0x00, 0x00, 0x00, 0x00, 0x00, 0x00,
    0x00, 0x00, 0x00, 0x00, 0x00, 0x00, 0x00, 0x00, 0x00, 0x00, 0x00, 0x00, 0x00, 0x00, 0x00, 0x00,
    0x00, 0x00, 0x00, 0x00, 0x00, 0x00, 0x00, 0x00, 0x00, 0x00, 0x00, 0x00, 0x00, 0x00, 0x00, 0x00,
    0x00, 0x00, 0x00, 0x00, 0x00, 0x00, 0x00, 0x00, 0x00, 0x00, 0x00, 0x00, 0x00, 0x00, 0x00, 0x00,
    0x00, 0x00, 0x00, 0x00, 0x00, 0x00, 0x00, 0x00, 0x00, 0x00, 0x00, 0x00, 0x00, 0x00, 0x00, 0x00,
    0x00, 0x00, 0x00, 0x00, 0x00, 0x00, 0x00, 0x00, 0x00, 0x00, 0x00, 0x00, 0x00, 0x00, 0x00, 0x00,
    0x00, 0x00, 0x00, 0x00, 0x00, 0x00, 0x00, 0x00, 0x00, 0x00, 0x00, 0x00, 0x00, 0x00, 0x00, 0x00,
    0x00, 0x00, 0x00, 0x00, 0x00, 0x00, 0x00, 0x00, 0x00, 0x00, 0x00, 0x00, 0x00, 0x00, 0x00, 0x00,
    0x00, 0x00, 0x00, 0x00, 0x00, 0x00, 0x00, 0x00, 0x00, 0x00, 0x00, 0x00, 0x00, 0x00, 0x00, 0x00,
    0x18, 0x00, 0x00, 0x00, 0xec, 0x23, 0x02, 0x3c, 0xa4, 0x63, 0x7e, 0x3b, 0xf9, 0x4d, 0xe5, 0x3b,
    0xf6, 0x98, 0x92, 0x3b, 0xcb, 0x18, 0x49, 0x3b, 0xac, 0x62, 0xd6, 0x3b, 0xb1, 0x54, 0xee, 0x3a,
    0xed, 0x9d, 0x62, 0x3b, 0xa0, 0x2a, 0x9e, 0x3b, 0xeb, 0x6f, 0xd0, 0x3b, 0xe8, 0xd4, 0x15, 0x3c,
    0xd4, 0xcc, 0x8d, 0x3b, 0x3e, 0x56, 0xba, 0x3b, 0x6e, 0x6b, 0x0b, 0x3c, 0xc2, 0xb1, 0x02, 0x3c,
    0x5e, 0xbe, 0x75, 0x3b, 0x63, 0x39, 0x8a, 0x3b, 0xb7, 0xb9, 0xa8, 0x3b, 0x57, 0xf2, 0xc8, 0x3b,
    0x04, 0xd9, 0x15, 0x3b, 0xac, 0x99, 0x69, 0x3b, 0x5f, 0xaa, 0x93, 0x3a, 0x02, 0x04, 0x0a, 0x3c,
    0xf6, 0x68, 0x08, 0x3b, 0x2d, 0x00, 0x00, 0x00, 0x45, 0x66, 0x66, 0x69, 0x63, 0x69, 0x65, 0x6e,
    0x74, 0x4e, 0x65, 0x74, 0x56, 0x32, 0x2f, 0x73, 0x74, 0x61, 0x67, 0x65, 0x31, 0x2e, 0x6d, 0x62,
    0x63, 0x6f, 0x6e, 0x76, 0x31, 0x2e, 0x72, 0x65, 0x64, 0x2e, 0x63, 0x6f, 0x6e, 0x76, 0x2f, 0x43,
    0x6f, 0x6e, 0x76, 0x32, 0x44, 0x00, 0x00, 0x00, 0x04, 0x00, 0x00, 0x00, 0x18, 0x00, 0x00, 0x00,
    0x01, 0x00, 0x00, 0x00, 0x01, 0x00, 0x00, 0x00, 0x10, 0x00, 0x00, 0x00, 0x52, 0xed, 0xff, 0xff,
    0x00, 0x00, 0x00, 0x01, 0x14, 0x00, 0x00, 0x00, 0x44, 0x01, 0x00, 0x00, 0x0d, 0x00, 0x00, 0x00,
    0x00, 0x00, 0x00, 0x02, 0x74, 0x01, 0x00, 0x00, 0xac, 0xec, 0xff, 0xff, 0x08, 0x00, 0x00, 0x00,
    0xc8, 0x00, 0x00, 0x00, 0x18, 0x00, 0x00, 0x00, 0x00, 0x00, 0x00, 0x00, 0x00, 0x00, 0x00, 0x00,
    0x00, 0x00, 0x00, 0x00, 0x00, 0x00, 0x00, 0x00, 0x00, 0x00, 0x00, 0x00, 0x00, 0x00, 0x00, 0x00,
    0x00, 0x00, 0x00, 0x00, 0x00, 0x00, 0x00, 0x00, 0x00, 0x00, 0x00, 0x00, 0x00, 0x00, 0x00, 0x00,
    0x00, 0x00, 0x00, 0x00, 0x00, 0x00, 0x00, 0x00, 0x00, 0x00, 0x00, 0x00, 0x00, 0x00, 0x00, 0x00,
    0x00, 0x00, 0x00, 0x00, 0x00, 0x00, 0x00, 0x00, 0x00, 0x00, 0x00, 0x00, 0x00, 0x00, 0x00, 0x00,
    0x00, 0x00, 0x00, 0x00, 0x00, 0x00, 0x00, 0x00, 0x00, 0x00, 0x00, 0x00, 0x00, 0x00, 0x00, 0x00,
    0x00, 0x00, 0x00, 0x00, 0x00, 0x00, 0x00, 0x00, 0x00, 0x00, 0x00, 0x00, 0x00, 0x00, 0x00, 0x00,
    0x00, 0x00, 0x00, 0x00, 0x00, 0x00, 0x00, 0x00, 0x00, 0x00, 0x00, 0x00, 0x00, 0x00, 0x00, 0x00,
    0x00, 0x00, 0x00, 0x00, 0x00, 0x00, 0x00, 0x00, 0x00, 0x00, 0x00, 0x00, 0x00, 0x00, 0x00, 0x00,
    0x00, 0x00, 0x00, 0x00, 0x00, 0x00, 0x00, 0x00, 0x00, 0x00, 0x00, 0x00, 0x00, 0x00, 0x00, 0x00,
    0x00, 0x00, 0x00, 0x00, 0x00, 0x00, 0x00, 0x00, 0x00, 0x00, 0x00, 0x00, 0x00, 0x00, 0x00, 0x00,
    0x00, 0x00, 0x00, 0x00, 0x00, 0x00, 0x00, 0x00, 0x00, 0x00, 0x00, 0x00, 0x00, 0x00, 0x00, 0x00,
    0x00, 0x00, 0x00, 0x00, 0x00, 0x00, 0x00, 0x00, 0x18, 0x00, 0x00, 0x00, 0xdc, 0xf9, 0x43, 0x39,
    0x46, 0x8a, 0xbf, 0x38, 0x22, 0xa7, 0x2c, 0x39, 0x33, 0xc2, 0xdc, 0x38, 0x02, 0x6a, 0x97, 0x38,
    0x6d, 0x6b, 0x21, 0x39, 0xf8, 0x72, 0x33, 0x38, 0x13, 0xa1, 0xaa, 0x38, 0x1e, 0x2e, 0xee, 0x38,
    0xe1, 0xf0, 0x1c, 0x39, 0xfd, 0xa0, 0x61, 0x39, 0xc7, 0x88, 0xd5, 0x38, 0xfc, 0x4c, 0x0c, 0x39,
    0x18, 0xf3, 0x51, 0x39, 0x73, 0xcf, 0x44, 0x39, 0xcf, 0x07, 0xb9, 0x38, 0x3b, 0x26, 0xd0, 0x38,
    0xa7, 0x14, 0xfe, 0x38, 0x0e, 0x4d, 0x17, 0x39, 0x2d, 0xa7, 0x61, 0x38, 0x24, 0xe3, 0xaf, 0x38,
    0xed, 0x5d, 0xde, 0x37, 0xd9, 0xd5, 0x4f, 0x39, 0xdc, 0x6a, 0x4d, 0x38, 0x35, 0x00, 0x00, 0x00,
    0x45, 0x66, 0x66, 0x69, 0x63, 0x69, 0x65, 0x6e, 0x74, 0x4e, 0x65, 0x74, 0x56, 0x32, 0x2f, 0x73,
    0x74, 0x61, 0x67, 0x65, 0x31, 0x2e, 0x6d, 0x62, 0x63, 0x6f, 0x6e, 0x76, 0x31, 0x2e, 0x72, 0x65,
    0x64, 0x2e, 0x62, 0x6e, 0x2f, 0x46, 0x75, 0x73, 0x65, 0x64, 0x42, 0x61, 0x74, 0x63, 0x68, 0x4e,
    0x6f, 0x72, 0x6d, 0x56, 0x33, 0x00, 0x00, 0x00, 0x01, 0x00, 0x00, 0x00, 0x18, 0x00, 0x00, 0x00,
    0xe6, 0xee, 0xff, 0xff, 0x00, 0x00, 0x00, 0x01, 0x14, 0x00, 0x00, 0x00, 0x48, 0x01, 0x00, 0x00,
    0x0c, 0x00, 0x00, 0x00, 0x00, 0x00, 0x00, 0x09, 0xa0, 0x01, 0x00, 0x00, 0xaa, 0xf8, 0xff, 0xff,
    0x03, 0x00, 0x00, 0x00, 0x08, 0x00, 0x00, 0x00, 0xc8, 0x00, 0x00, 0x00, 0x18, 0x00, 0x00, 0x00,
    0x00, 0x00, 0x00, 0x00, 0x00, 0x00, 0x00, 0x00, 0x00, 0x00, 0x00, 0x00, 0x00, 0x00, 0x00, 0x00,
    0x00, 0x00, 0x00, 0x00, 0x00, 0x00, 0x00, 0x00, 0x00, 0x00, 0x00, 0x00, 0x00, 0x00, 0x00, 0x00,
    0x00, 0x00, 0x00, 0x00, 0x00, 0x00, 0x00, 0x00, 0x00, 0x00, 0x00, 0x00, 0x00, 0x00, 0x00, 0x00,
    0x00, 0x00, 0x00, 0x00, 0x00, 0x00, 0x00, 0x00, 0x00, 0x00, 0x00, 0x00, 0x00, 0x00, 0x00, 0x00,
    0x00, 0x00, 0x00, 0x00, 0x00, 0x00, 0x00, 0x00, 0x00, 0x00, 0x00, 0x00, 0x00, 0x00, 0x00, 0x00,
    0x00, 0x00, 0x00, 0x00, 0x00, 0x00, 0x00, 0x00, 0x00, 0x00, 0x00, 0x00, 0x00, 0x00, 0x00, 0x00,
    0x00, 0x00, 0x00, 0x00, 0x00, 0x00, 0x00, 0x00, 0x00, 0x00, 0x00, 0x00, 0x00, 0x00, 0x00, 0x00,
    0x00, 0x00, 0x00, 0x00, 0x00, 0x00, 0x00, 0x00, 0x00, 0x00, 0x00, 0x00, 0x00, 0x00, 0x00, 0x00,
    0x00, 0x00, 0x00, 0x00, 0x00, 0x00, 0x00, 0x00, 0x00, 0x00, 0x00, 0x00, 0x00, 0x00, 0x00, 0x00,
    0x00, 0x00, 0x00, 0x00, 0x00, 0x00, 0x00, 0x00, 0x00, 0x00, 0x00, 0x00, 0x00, 0x00, 0x00, 0x00,
    0x00, 0x00, 0x00, 0x00, 0x00, 0x00, 0x00, 0x00, 0x00, 0x00, 0x00, 0x00, 0x00, 0x00, 0x00, 0x00,
    0x00, 0x00, 0x00, 0x00, 0x00, 0x00, 0x00, 0x00, 0x00, 0x00, 0x00, 0x00, 0x00, 0x00, 0x00, 0x00,
    0x18, 0x00, 0x00, 0x00, 0xc4, 0xc6, 0x41, 0x3b, 0x94, 0xc5, 0x45, 0x3c, 0x56, 0xbf, 0x86, 0x3b,
    0x97, 0xda, 0xf3, 0x3b, 0xa3, 0x8b, 0x20, 0x3c, 0xc8, 0xaf, 0xa8, 0x3b, 0xbf, 0x8f, 0x07, 0x3c,
    0x14, 0x45, 0x9f, 0x3b, 0x4d, 0xed, 0x96, 0x3b, 0x28, 0xd6, 0x9e, 0x3b, 0x34, 0xf9, 0x18, 0x3b,
    0x9c, 0x0c, 0x89, 0x3b, 0xf7, 0x4c, 0x86, 0x3b, 0x93, 0x93, 0xae, 0x3b, 0x8c, 0xc5, 0x85, 0x3b,
    0x12, 0x26, 0xf8, 0x3b, 0x44, 0x29, 0x7d, 0x3b, 0x37, 0xad, 0x84, 0x3b, 0xde, 0x02, 0x46, 0x3b,
    0x8d, 0xdf, 0xa6, 0x3b, 0x9e, 0x4e, 0x61, 0x3b, 0x83, 0xbe, 0x41, 0x3c, 0xfe, 0x8e, 0x78, 0x3b,
    0x6a, 0xd6, 0xd8, 0x3b, 0x5f, 0x00, 0x00, 0x00, 0x45, 0x66, 0x66, 0x69, 0x63, 0x69, 0x65, 0x6e,
    0x74, 0x4e, 0x65, 0x74, 0x56, 0x32, 0x2f, 0x73, 0x74, 0x61, 0x67, 0x65, 0x32, 0x2e, 0x6d, 0x62,
    0x63, 0x6f, 0x6e, 0x76, 0x31, 0x2e, 0x64, 0x70, 0x2e, 0x62, 0x6e, 0x2f, 0x46, 0x75, 0x73, 0x65,
    0x64, 0x42, 0x61, 0x74, 0x63, 0x68, 0x4e, 0x6f, 0x72, 0x6d, 0x56, 0x33, 0x3b, 0x45, 0x66, 0x66,
    0x69, 0x63, 0x69, 0x65, 0x6e, 0x74, 0x4e, 0x65, 0x74, 0x56, 0x32, 0x2f, 0x73, 0x74, 0x61, 0x67,
    0x65, 0x32, 0x2e, 0x6d, 0x62, 0x63, 0x6f, 0x6e, 0x76, 0x31, 0x2e, 0x64, 0x70, 0x2f, 0x64, 0x65,
    0x70, 0x74, 0x68, 0x77, 0x69, 0x73, 0x65, 0x00, 0x04, 0x00, 0x00, 0x00, 0x01, 0x00, 0x00, 0x00,
    0x03, 0x00, 0x00, 0x00, 0x03, 0x00, 0x00, 0x00, 0x18, 0x00, 0x00, 0x00, 0xb2, 0xf0, 0xff, 0xff,
    0x00, 0x00, 0x00, 0x01, 0x14, 0x00, 0x00, 0x00, 0x48, 0x01, 0x00, 0x00, 0x0b, 0x00, 0x00, 0x00,
    0x00, 0x00, 0x00, 0x02, 0x78, 0x01, 0x00, 0x00, 0x0c, 0xf0, 0xff, 0xff, 0x08, 0x00, 0x00, 0x00,
    0xcc, 0x00, 0x00, 0x00, 0x18, 0x00, 0x00, 0x00, 0x00, 0x00, 0x00, 0x00, 0x00, 0x00, 0x00, 0x00,
    0x00, 0x00, 0x00, 0x00, 0x00, 0x00, 0x00, 0x00, 0x00, 0x00, 0x00, 0x00, 0x00, 0x00, 0x00, 0x00,
    0x00, 0x00, 0x00, 0x00, 0x00, 0x00, 0x00, 0x00, 0x00, 0x00, 0x00, 0x00, 0x00, 0x00, 0x00, 0x00,
    0x00, 0x00, 0x00, 0x00, 0x00, 0x00, 0x00, 0x00, 0x00, 0x00, 0x00, 0x00, 0x00, 0x00, 0x00, 0x00,
    0x00, 0x00, 0x00, 0x00, 0x00, 0x00, 0x00, 0x00, 0x00, 0x00, 0x00, 0x00, 0x00, 0x00, 0x00, 0x00,
    0x00, 0x00, 0x00, 0x00, 0x00, 0x00, 0x00, 0x00, 0x00, 0x00, 0x00, 0x00, 0x00, 0x00, 0x00, 0x00,
    0x00, 0x00, 0x00, 0x00, 0x00, 0x00, 0x00, 0x00, 0x00, 0x00, 0x00, 0x00, 0x00, 0x00, 0x00, 0x00,
    0x00, 0x00, 0x00, 0x00, 0x00, 0x00, 0x00, 0x00, 0x00, 0x00, 0x00, 0x00, 0x00, 0x00, 0x00, 0x00,
    0x00, 0x00, 0x00, 0x00, 0x00, 0x00, 0x00, 0x00, 0x00, 0x00, 0x00, 0x00, 0x00, 0x00, 0x00, 0x00,
    0x00, 0x00, 0x00, 0x00, 0x00, 0x00, 0x00, 0x00, 0x00, 0x00, 0x00, 0x00, 0x00, 0x00, 0x00, 0x00,
    0x00, 0x00, 0x00, 0x00, 0x00, 0x00, 0x00, 0x00, 0x00, 0x00, 0x00, 0x00, 0x00, 0x00, 0x00, 0x00,
    0x00, 0x00, 0x00, 0x00, 0x00, 0x00, 0x00, 0x00, 0x00, 0x00, 0x00, 0x00, 0x00, 0x00, 0x00, 0x00,
    0x00, 0x00, 0x00, 0x00, 0x00, 0x00, 0x00, 0x00, 0x00, 0x00, 0x00, 0x00, 0x18, 0x00, 0x00, 0x00,
    0xb0, 0x62, 0x42, 0x39, 0xb7, 0x64, 0x46, 0x3a, 0xc3, 0x2b, 0x87, 0x39, 0xcf, 0x9e, 0xf4, 0x39,
    0xd2, 0x0c, 0x21, 0x3a, 0x84, 0x37, 0xa9, 0x39, 0xd4, 0xfc, 0x07, 0x3a, 0x3c, 0xc5, 0x9f, 0x39,
    0xbf, 0x66, 0x97, 0x39, 0xf7, 0x55, 0x9f, 0x39, 0x4b, 0x74, 0x19, 0x39, 0xe3, 0x7a, 0x89, 0x39,
    0x08, 0xb9, 0x86, 0x39, 0x0c, 0x20, 0xaf, 0x39, 0x30, 0x31, 0x86, 0x39, 0xbf, 0xed, 0xf8, 0x39,
    0xf9, 0xf4, 0x7d, 0x39, 0xf9, 0x17, 0x85, 0x39, 0x33, 0xa2, 0x46, 0x39, 0xd4, 0x65, 0xa7, 0x39,
    0xea, 0x03, 0x62, 0x39, 0x69, 0x5a, 0x42, 0x3a, 0xff, 0x56, 0x79, 0x39, 0xe5, 0x84, 0xd9, 0x39,
    0x34, 0x00, 0x00, 0x00, 0x45, 0x66, 0x66, 0x69, 0x63, 0x69, 0x65, 0x6e, 0x74, 0x4e, 0x65, 0x74,
    0x56, 0x32, 0x2f, 0x73, 0x74, 0x61, 0x67, 0x65, 0x32, 0x2e, 0x6d, 0x62, 0x63, 0x6f, 0x6e, 0x76,
    0x31, 0x2e, 0x64, 0x70, 0x2e, 0x62, 0x6e, 0x2f, 0x46, 0x75, 0x73, 0x65, 0x64, 0x42, 0x61, 0x74,
    0x63, 0x68, 0x4e, 0x6f, 0x72, 0x6d, 0x56, 0x33, 0x00, 0x00, 0x00, 0x00, 0x01, 0x00, 0x00, 0x00,
    0x18, 0x00, 0x00, 0x00, 0x4a, 0xf2, 0xff, 0xff, 0x00, 0x00, 0x00, 0x01, 0x14, 0x00, 0x00, 0x00,
    0xa4, 0x01, 0x00, 0x00, 0x0a, 0x00, 0x00, 0x00, 0x00, 0x00, 0x00, 0x09, 0xcc, 0x01, 0x00, 0x00,
    0xa4, 0xf1, 0xff, 0xff, 0x08, 0x00, 0x00, 0x00, 0x08, 0x01, 0x00, 0x00, 0x20, 0x00, 0x00, 0x00,
    0x00, 0x00, 0x00, 0x00, 0x00, 0x00, 0x00, 0x00, 0x00, 0x00, 0x00, 0x00, 0x00, 0x00, 0x00, 0x00,
    0x00, 0x00, 0x00, 0x00, 0x00, 0x00, 0x00, 0x00, 0x00, 0x00, 0x00, 0x00, 0x00, 0x00, 0x00, 0x00,
    0x00, 0x00, 0x00, 0x00, 0x00, 0x00, 0x00, 0x00, 0x00, 0x00, 0x00, 0x00, 0x00, 0x00, 0x00, 0x00,
    0x00, 0x00, 0x00, 0x00, 0x00, 0x00, 0x00, 0x00, 0x00, 0x00, 0x00, 0x00, 0x00, 0x00, 0x00, 0x00,
    0x00, 0x00, 0x00, 0x00, 0x00, 0x00, 0x00, 0x00, 0x00, 0x00, 0x00, 0x00, 0x00, 0x00, 0x00, 0x00,
    0x00, 0x00, 0x00, 0x00, 0x00, 0x00, 0x00, 0x00, 0x00, 0x00, 0x00, 0x00, 0x00, 0x00, 0x00, 0x00,
    0x00, 0x00, 0x00, 0x00, 0x00, 0x00, 0x00, 0x00, 0x00, 0x00, 0x00, 0x00, 0x00, 0x00, 0x00, 0x00,
    0x00, 0x00, 0x00, 0x00, 0x00, 0x00, 0x00, 0x00, 0x00, 0x00, 0x00, 0x00, 0x00, 0x00, 0x00, 0x00,
    0x00, 0x00, 0x00, 0x00, 0x00, 0x00, 0x00, 0x00, 0x00, 0x00, 0x00, 0x00, 0x00, 0x00, 0x00, 0x00,
    0x00, 0x00, 0x00, 0x00, 0x00, 0x00, 0x00, 0x00, 0x00, 0x00, 0x00, 0x00, 0x00, 0x00, 0x00, 0x00,
    0x00, 0x00, 0x00, 0x00, 0x00, 0x00, 0x00, 0x00, 0x00, 0x00, 0x00, 0x00, 0x00, 0x00, 0x00, 0x00,
    0x00, 0x00, 0x00, 0x00, 0x00, 0x00, 0x00, 0x00, 0x00, 0x00, 0x00, 0x00, 0x00, 0x00, 0x00, 0x00,
    0x00, 0x00, 0x00, 0x00, 0x00, 0x00, 0x00, 0x00, 0x00, 0x00, 0x00, 0x00, 0x00, 0x00, 0x00, 0x00,
    0x00, 0x00, 0x00, 0x00, 0x00, 0x00, 0x00, 0x00, 0x00, 0x00, 0x00, 0x00, 0x00, 0x00, 0x00, 0x00,
    0x00, 0x00, 0x00, 0x00, 0x00, 0x00, 0x00, 0x00, 0x00, 0x00, 0x00, 0x00, 0x00, 0x00, 0x00, 0x00,
    0x00, 0x00, 0x00, 0x00, 0x00, 0x00, 0x00, 0x00, 0x00, 0x00, 0x00, 0x00, 0x00, 0x00, 0x00, 0x00,
    0x20, 0x00, 0x00, 0x00, 0xbf, 0xde, 0x98, 0x3b, 0xe3, 0x83, 0x32, 0x3b, 0x07, 0xb2, 0xf3, 0x3b,
    0xa0, 0x33, 0xc2, 0x3b, 0x7a, 0x22, 0x01, 0x3b, 0x50, 0x7c, 0x88, 0x3b, 0x6b, 0xd5, 0x06, 0x3b,
    0x41, 0x03, 0xca, 0x3b, 0x43, 0xd5, 0x39, 0x3b, 0xa7, 0xf4, 0x34, 0x3b, 0x65, 0x8f, 0xe4, 0x3b,
    0xc1, 0x01, 0x34, 0x3b, 0xb3, 0x44, 0xfa, 0x3b, 0x52, 0xea, 0xa4, 0x3b, 0x42, 0x9b, 0x83, 0x3b,
    0x74, 0xba, 0xa8, 0x3b, 0x21, 0xe0, 0xac, 0x3b, 0xd6, 0xd1, 0x91, 0x3b, 0xca, 0x9e, 0x5d, 0x3b,
    0x39, 0xdf, 0x93, 0x3b, 0xf6, 0xe5, 0x63, 0x3b, 0xed, 0x1b, 0xa1, 0x3b, 0xeb, 0x03, 0xe1, 0x3b,
    0xb3, 0x87, 0x6b, 0x3b, 0x08, 0xdf, 0x85, 0x3b, 0x22, 0xa2, 0xa0, 0x3a, 0xf0, 0x1f, 0x44, 0x3b,
    0x79, 0x9f, 0xb8, 0x3b, 0x11, 0x92, 0xf3, 0x3b, 0xa6, 0x27, 0xd5, 0x3b, 0xe3, 0xed, 0x84, 0x3b,
    0xc2, 0xb5, 0x82, 0x3b, 0x2d, 0x00, 0x00, 0x00, 0x45, 0x66, 0x66, 0x69, 0x63, 0x69, 0x65, 0x6e,
    0x74, 0x4e, 0x65, 0x74, 0x56, 0x32, 0x2f, 0x73, 0x74, 0x61, 0x67, 0x65, 0x32, 0x2e, 0x6d, 0x62,
    0x63, 0x6f, 0x6e, 0x76, 0x31, 0x2e, 0x72, 0x65, 0x64, 0x2e, 0x63, 0x6f, 0x6e, 0x76, 0x2f, 0x43,
    0x6f, 0x6e, 0x76, 0x32, 0x44, 0x00, 0x00, 0x00, 0x04, 0x00, 0x00, 0x00, 0x20, 0x00, 0x00, 0x00,
    0x01, 0x00, 0x00, 0x00, 0x01, 0x00, 0x00, 0x00, 0x18, 0x00, 0x00, 0x00, 0x42, 0xf4, 0xff, 0xff,
    0x00, 0x00, 0x00, 0x01, 0x14, 0x00, 0x00, 0x00, 0xa8, 0x01, 0x00, 0x00, 0x09, 0x00, 0x00, 0x00,
    0x00, 0x00, 0x00, 0x02, 0xd8, 0x01, 0x00, 0x00, 0x9c, 0xf3, 0xff, 0xff, 0x08, 0x00, 0x00, 0x00,
    0x0c, 0x01, 0x00, 0x00, 0x20, 0x00, 0x00, 0x00, 0x00, 0x00, 0x00, 0x00, 0x00, 0x00, 0x00, 0x00,
    0x00, 0x00, 0x00, 0x00, 0x00, 0x00, 0x00, 0x00, 0x00, 0x00, 0x00, 0x00, 0x00, 0x00, 0x00, 0x00,
    0x00, 0x00, 0x00, 0x00, 0x00, 0x00, 0x00, 0x00, 0x00, 0x00, 0x00, 0x00, 0x00, 0x00, 0x00, 0x00,
    0x00, 0x00, 0x00, 0x00, 0x00, 0x00, 0x00, 0x00, 0x00, 0x00, 0x00, 0x00, 0x00, 0x00, 0x00, 0x00,
    0x00, 0x00, 0x00, 0x00, 0x00, 0x00, 0x00, 0x00, 0x00, 0x00, 0x00, 0x00, 0x00, 0x00, 0x00, 0x00,
    0x00, 0x00, 0x00, 0x00, 0x00, 0x00, 0x00, 0x00, 0x00, 0x00, 0x00, 0x00, 0x00, 0x00, 0x00, 0x00,
    0x00, 0x00, 0x00, 0x00, 0x00, 0x00, 0x00, 0x00, 0x00, 0x00, 0x00, 0x00, 0x00, 0x00, 0x00, 0x00,
    0x00, 0x00, 0x00, 0x00, 0x00, 0x00, 0x00, 0x00, 0x00, 0x00, 0x00, 0x00, 0x00, 0x00, 0x00, 0x00,
    0x00, 0x00, 0x00, 0x00, 0x00, 0x00, 0x00, 0x00, 0x00, 0x00, 0x00, 0x00, 0x00, 0x00, 0x00, 0x00,
    0x00, 0x00, 0x00, 0x00, 0x00, 0x00, 0x00, 0x00, 0x00, 0x00, 0x00, 0x00, 0x00, 0x00, 0x00, 0x00,
    0x00, 0x00, 0x00, 0x00, 0x00, 0x00, 0x00, 0x00, 0x00, 0x00, 0x00, 0x00, 0x00, 0x00, 0x00, 0x00,
    0x00, 0x00, 0x00, 0x00, 0x00, 0x00, 0x00, 0x00, 0x00, 0x00, 0x00, 0x00, 0x00, 0x00, 0x00, 0x00,
    0x00, 0x00, 0x00, 0x00, 0x00, 0x00, 0x00, 0x00, 0x00, 0x00, 0x00, 0x00, 0x00, 0x00, 0x00, 0x00,
    0x00, 0x00, 0x00, 0x00, 0x00, 0x00, 0x00, 0x00, 0x00, 0x00, 0x00, 0x00, 0x00, 0x00, 0x00, 0x00,
    0x00, 0x00, 0x00, 0x00, 0x00, 0x00, 0x00, 0x00, 0x00, 0x00, 0x00, 0x00, 0x00, 0x00, 0x00, 0x00,
    0x00, 0x00, 0x00, 0x00, 0x00, 0x00, 0x00, 0x00, 0x00, 0x00, 0x00, 0x00, 0x00, 0x00, 0x00, 0x00,
    0x00, 0x00, 0x00, 0x00, 0x00, 0x00, 0x00, 0x00, 0x00, 0x00, 0x00, 0x00, 0x20, 0x00, 0x00, 0x00,
    0x53, 0x34, 0xe6, 0x38, 0x54, 0x69, 0x86, 0x38, 0x02, 0x7d, 0x37, 0x39, 0xf1, 0x38, 0x12, 0x39,
    0x2d, 0x76, 0x42, 0x38, 0x00, 0x88, 0xcd, 0x38, 0x2c, 0x0b, 0x4b, 0x38, 0x8b, 0x1a, 0x18, 0x39,
    0xde, 0xeb, 0x8b, 0x38, 0xbd, 0x3f, 0x88, 0x38, 0xa4, 0x17, 0x2c, 0x39, 0xda, 0x88, 0x87, 0x38,
    0xf6, 0x6f, 0x3c, 0x39, 0xd3, 0x57, 0xf8, 0x38, 0x12, 0x2f, 0xc6, 0x38, 0xc4, 0x15, 0xfe, 0x38,
    0x43, 0x2a, 0x02, 0x39, 0x58, 0x96, 0xdb, 0x38, 0xf6, 0xdd, 0xa6, 0x38, 0x83, 0xad, 0xde, 0x38,
    0x11, 0x98, 0xab, 0x38, 0x80, 0x9c, 0xf2, 0x38, 0x5d, 0x6c, 0x29, 0x39, 0x1e, 0x57, 0xb1, 0x38,
    0x24, 0x98, 0xc9, 0x38, 0x18, 0xe5, 0xf1, 0x37, 0xa0, 0xab, 0x93, 0x38, 0x9e, 0x02, 0x0b, 0x39,
    0xf2, 0x64, 0x37, 0x39, 0x3b, 0x7e, 0x20, 0x39, 0x02, 0x2d, 0xc8, 0x38, 0x79, 0xd5, 0xc4, 0x38,
    0x35, 0x00, 0x00, 0x00, 0x45, 0x66, 0x66, 0x69, 0x63, 0x69, 0x65, 0x6e, 0x74, 0x4e, 0x65, 0x74,
    0x56, 0x32, 0x2f, 0x73, 0x74, 0x61, 0x67, 0x65, 0x32, 0x2e, 0x6d, 0x62, 0x63, 0x6f, 0x6e, 0x76,
    0x31, 0x2e, 0x72, 0x65, 0x64, 0x2e, 0x62, 0x6e, 0x2f, 0x46, 0x75, 0x73, 0x65, 0x64, 0x42, 0x61,
    0x74, 0x63, 0x68, 0x4e, 0x6f, 0x72, 0x6d, 0x56, 0x33, 0x00, 0x00, 0x00, 0x01, 0x00, 0x00, 0x00,
    0x20, 0x00, 0x00, 0x00, 0x3a, 0xf6, 0xff, 0xff, 0x00, 0x00, 0x00, 0x01, 0x28, 0x00, 0x00, 0x00,
    0xbc, 0x01, 0x00, 0x00, 0x08, 0x00, 0x00, 0x00, 0x00, 0x00, 0x00, 0x09, 0x14, 0x02, 0x00, 0x00,
    0x00, 0x00, 0x12, 0x00, 0x10, 0x00, 0x00, 0x00, 0x00, 0x00, 0x0c, 0x00, 0x08, 0x00, 0x00, 0x00,
    0x00, 0x00, 0x04, 0x00, 0x12, 0x00, 0x00, 0x00, 0x03, 0x00, 0x00, 0x00, 0x08, 0x00, 0x00, 0x00,
    0x08, 0x01, 0x00, 0x00, 0x20, 0x00, 0x00, 0x00, 0x00, 0x00, 0x00, 0x00, 0x00, 0x00, 0x00, 0x00,
    0x00, 0x00, 0x00, 0x00, 0x00, 0x00, 0x00, 0x00, 0x00, 0x00, 0x00, 0x00, 0x00, 0x00, 0x00, 0x00,
    0x00, 0x00, 0x00, 0x00, 0x00, 0x00, 0x00, 0x00, 0x00, 0x00, 0x00, 0x00, 0x00, 0x00, 0x00, 0x00,
    0x00, 0x00, 0x00, 0x00, 0x00, 0x00, 0x00, 0x00, 0x00, 0x00, 0x00, 0x00, 0x00, 0x00, 0x00, 0x00,
    0x00, 0x00, 0x00, 0x00, 0x00, 0x00, 0x00, 0x00, 0x00, 0x00, 0x00, 0x00, 0x00, 0x00, 0x00, 0x00,
    0x00, 0x00, 0x00, 0x00, 0x00, 0x00, 0x00, 0x00, 0x00, 0x00, 0x00, 0x00, 0x00, 0x00, 0x00, 0x00,
    0x00, 0x00, 0x00, 0x00, 0x00, 0x00, 0x00, 0x00, 0x00, 0x00, 0x00, 0x00, 0x00, 0x00, 0x00, 0x00,
    0x00, 0x00, 0x00, 0x00, 0x00, 0x00, 0x00, 0x00, 0x00, 0x00, 0x00, 0x00, 0x00, 0x00, 0x00, 0x00,
    0x00, 0x00, 0x00, 0x00, 0x00, 0x00, 0x00, 0x00, 0x00, 0x00, 0x00, 0x00, 0x00, 0x00, 0x00, 0x00,
    0x00, 0x00, 0x00, 0x00, 0x00, 0x00, 0x00, 0x00, 0x00, 0x00, 0x00, 0x00, 0x00, 0x00, 0x00, 0x00,
    0x00, 0x00, 0x00, 0x00, 0x00, 0x00, 0x00, 0x00, 0x00, 0x00, 0x00, 0x00, 0x00, 0x00, 0x00, 0x00,
    0x00, 0x00, 0x00, 0x00, 0x00, 0x00, 0x00, 0x00, 0x00, 0x00, 0x00, 0x00, 0x00, 0x00, 0x00, 0x00,
    0x00, 0x00, 0x00, 0x00, 0x00, 0x00, 0x00, 0x00, 0x00, 0x00, 0x00, 0x00, 0x00, 0x00, 0x00, 0x00,
    0x00, 0x00, 0x00, 0x00, 0x00, 0x00, 0x00, 0x00, 0x00, 0x00, 0x00, 0x00, 0x00, 0x00, 0x00, 0x00,
    0x00, 0x00, 0x00, 0x00, 0x00, 0x00, 0x00, 0x00, 0x00, 0x00, 0x00, 0x00, 0x00, 0x00, 0x00, 0x00,
    0x00, 0x00, 0x00, 0x00, 0x00, 0x00, 0x00, 0x00, 0x00, 0x00, 0x00, 0x00, 0x00, 0x00, 0x00, 0x00,
    0x00, 0x00, 0x00, 0x00, 0x00, 0x00, 0x00, 0x00, 0x20, 0x00, 0x00, 0x00, 0x19, 0x54, 0xb3, 0x3b,
    0x32, 0x0d, 0x3a, 0x3c, 0xa0, 0x8a, 0xb9, 0x3b, 0x16, 0x34, 0xcf, 0x3b, 0x38, 0x17, 0x7a, 0x3c,
    0x6a, 0xda, 0xe3, 0x3b, 0x03, 0x70, 0xf6, 0x3b, 0x80, 0xce, 0x70, 0x3b, 0xc4, 0xd6, 0x45, 0x3c,
    0xd2, 0x7a, 0xfd, 0x3b, 0x38, 0x61, 0x80, 0x3b, 0x06, 0x33, 0xc6, 0x3b, 0x31, 0x13, 0xae, 0x3b,
    0xd8, 0xbf, 0x8c, 0x3b, 0x03, 0x41, 0x31, 0x3c, 0x76, 0x2f, 0xa3, 0x3b, 0x9f, 0x96, 0xf2, 0x3b,
    0x73, 0x21, 0xa6, 0x3b, 0xf2, 0x94, 0x38, 0x3c, 0x90, 0x82, 0x8f, 0x3b, 0xff, 0x32, 0xa9, 0x3b,
    0x09, 0x25, 0x5e, 0x3b, 0x1e, 0x73, 0x86, 0x3b, 0xe7, 0x1b, 0xf4, 0x3b, 0x9e, 0x30, 0x9f, 0x3b,
    0x6b, 0xf8, 0x22, 0x3c, 0xdc, 0x14, 0x10, 0x3c, 0x00, 0xa6, 0xfb, 0x3b, 0x77, 0xe5, 0x88, 0x3b,
    0x38, 0x16, 0x94, 0x3b, 0x06, 0xab, 0xa8, 0x3b, 0xe8, 0x3b, 0xda, 0x3b, 0x5f, 0x00, 0x00, 0x00,
    0x45, 0x66, 0x66, 0x69, 0x63, 0x69, 0x65, 0x6e, 0x74, 0x4e, 0x65, 0x74, 0x56, 0x32, 0x2f, 0x73,
    0x74, 0x61, 0x67, 0x65, 0x33, 0x2e, 0x6d, 0x62, 0x63, 0x6f, 0x6e, 0x76, 0x31, 0x2e, 0x64, 0x70,
    0x2e, 0x62, 0x6e, 0x2f, 0x46, 0x75, 0x73, 0x65, 0x64, 0x42, 0x61, 0x74, 0x63, 0x68, 0x4e, 0x6f,
    0x72, 0x6d, 0x56, 0x33, 0x3b, 0x45, 0x66, 0x66, 0x69, 0x63, 0x69, 0x65, 0x6e, 0x74, 0x4e, 0x65,
    0x74, 0x56, 0x32, 0x2f, 0x73, 0x74, 0x61, 0x67, 0x65, 0x33, 0x2e, 0x6d, 0x62, 0x63, 0x6f, 0x6e,
    0x76, 0x31, 0x2e, 0x64, 0x70, 0x2f, 0x64, 0x65, 0x70, 0x74, 0x68, 0x77, 0x69, 0x73, 0x65, 0x00,
    0x04, 0x00, 0x00, 0x00, 0x01, 0x00, 0x00, 0x00, 0x03, 0x00, 0x00, 0x00, 0x03, 0x00, 0x00, 0x00,
    0x20, 0x00, 0x00, 0x00, 0x7a, 0xf8, 0xff, 0xff, 0x00, 0x00, 0x00, 0x01, 0x14, 0x00, 0x00, 0x00,
    0xa8, 0x01, 0x00, 0x00, 0x07, 0x00, 0x00, 0x00, 0x00, 0x00, 0x00, 0x02, 0xd8, 0x01, 0x00, 0x00,
    0xd4, 0xf7, 0xff, 0xff, 0x08, 0x00, 0x00, 0x00, 0x0c, 0x01, 0x00, 0x00, 0x20, 0x00, 0x00, 0x00,
    0x00, 0x00, 0x00, 0x00, 0x00, 0x00, 0x00, 0x00, 0x00, 0x00, 0x00, 0x00, 0x00, 0x00, 0x00, 0x00,
    0x00, 0x00, 0x00, 0x00, 0x00, 0x00, 0x00, 0x00, 0x00, 0x00, 0x00, 0x00, 0x00, 0x00, 0x00, 0x00,
    0x00, 0x00, 0x00, 0x00, 0x00, 0x00, 0x00, 0x00, 0x00, 0x00, 0x00, 0x00, 0x00, 0x00, 0x00, 0x00,
    0x00, 0x00, 0x00, 0x00, 0x00, 0x00, 0x00, 0x00, 0x00, 0x00, 0x00, 0x00, 0x00, 0x00, 0x00, 0x00,
    0x00, 0x00, 0x00, 0x00, 0x00, 0x00, 0x00, 0x00, 0x00, 0x00, 0x00, 0x00, 0x00, 0x00, 0x00, 0x00,
    0x00, 0x00, 0x00, 0x00, 0x00, 0x00, 0x00, 0x00, 0x00, 0x00, 0x00, 0x00, 0x00, 0x00, 0x00, 0x00,
    0x00, 0x00, 0x00, 0x00, 0x00, 0x00, 0x00, 0x00, 0x00, 0x00, 0x00, 0x00, 0x00, 0x00, 0x00, 0x00,
    0x00, 0x00, 0x00, 0x00, 0x00, 0x00, 0x00, 0x00, 0x00, 0x00, 0x00, 0x00, 0x00, 0x00, 0x00, 0x00,
    0x00, 0x00, 0x00, 0x00, 0x00, 0x00, 0x00, 0x00, 0x00, 0x00, 0x00, 0x00, 0x00, 0x00, 0x00, 0x00,
    0x00, 0x00, 0x00, 0x00, 0x00, 0x00, 0x00, 0x00, 0x00, 0x00, 0x00, 0x00, 0x00, 0x00, 0x00, 0x00,
    0x00, 0x00, 0x00, 0x00, 0x00, 0x00, 0x00, 0x00, 0x00, 0x00, 0x00, 0x00, 0x00, 0x00, 0x00, 0x00,
    0x00, 0x00, 0x00, 0x00, 0x00, 0x00, 0x00, 0x00, 0x00, 0x00, 0x00, 0x00, 0x00, 0x00, 0x00, 0x00,
    0x00, 0x00, 0x00, 0x00, 0x00, 0x00, 0x00, 0x00, 0x00, 0x00, 0x00, 0x00, 0x00, 0x00, 0x00, 0x00,
    0x00, 0x00, 0x00, 0x00, 0x00, 0x00, 0x00, 0x00, 0x00, 0x00, 0x00, 0x00, 0x00, 0x00, 0x00, 0x00,
    0x00, 0x00, 0x00, 0x00, 0x00, 0x00, 0x00, 0x00, 0x00, 0x00, 0x00, 0x00, 0x00, 0x00, 0x00, 0x00,
    0x00, 0x00, 0x00, 0x00, 0x00, 0x00, 0x00, 0x00, 0x00, 0x00, 0x00, 0x00, 0x00, 0x00, 0x00, 0x00,
    0x00, 0x00, 0x00, 0x00, 0x20, 0x00, 0x00, 0x00, 0x7f, 0xa2, 0x97, 0x39, 0xce, 0x51, 0x1d, 0x3a,
    0x66, 0xe3, 0x9c, 0x39, 0x78, 0x34, 0xaf, 0x39, 0x18, 0x78, 0x53, 0x3a, 0x6e, 0xaa, 0xc0, 0x39,
    0x4f, 0x61, 0xd0, 0x39, 0x69, 0x9e, 0x4b, 0x39, 0x5e, 0x49, 0x27, 0x3a, 0xb6, 0x55, 0xd6, 0x39,
    0xaa, 0x1b, 0x59, 0x39, 0x61, 0x97, 0xa7, 0x39, 0x48, 0x31, 0x93, 0x39, 0xde, 0x06, 0x6e, 0x39,
    0x6d, 0xe1, 0x15, 0x3a, 0x10, 0xfc, 0x89, 0x39, 0x18, 0x20, 0xcd, 0x39, 0x9d, 0x79, 0x8c, 0x39,
    0xa8, 0x13, 0x1c, 0x3a, 0x07, 0xb2, 0x72, 0x39, 0xd9, 0x11, 0x8f, 0x39, 0xbb, 0xd6, 0x3b, 0x39,
    0x86, 0x5f, 0x63, 0x39, 0x42, 0x69, 0xce, 0x39, 0x2d, 0x9b, 0x86, 0x39, 0x85, 0xcd, 0x09, 0x3a,
    0x70, 0xa9, 0xf3, 0x39, 0x4a, 0xc9, 0xd4, 0x39, 0xc4, 0x82, 0x67, 0x39, 0x76, 0x6f, 0x7a, 0x39,
    0xdf, 0x9e, 0x8e, 0x39, 0x35, 0x88, 0xb8, 0x39, 0x34, 0x00, 0x00, 0x00, 0x45, 0x66, 0x66, 0x69,
    0x63, 0x69, 0x65, 0x6e, 0x74, 0x4e, 0x65, 0x74, 0x56, 0x32, 0x2f, 0x73, 0x74, 0x61, 0x67, 0x65,
    0x33, 0x2e, 0x6d, 0x62, 0x63, 0x6f, 0x6e, 0x76, 0x31, 0x2e, 0x64, 0x70, 0x2e, 0x62, 0x6e, 0x2f,
    0x46, 0x75, 0x73, 0x65, 0x64, 0x42, 0x61, 0x74, 0x63, 0x68, 0x4e, 0x6f, 0x72, 0x6d, 0x56, 0x33,
    0x00, 0x00, 0x00, 0x00, 0x01, 0x00, 0x00, 0x00, 0x20, 0x00, 0x00, 0x00, 0x72, 0xfa, 0xff, 0xff,
    0x00, 0x00, 0x00, 0x01, 0x14, 0x00, 0x00, 0x00, 0x04, 0x02, 0x00, 0x00, 0x06, 0x00, 0x00, 0x00,
    0x00, 0x00, 0x00, 0x09, 0x2c, 0x02, 0x00, 0x00, 0xcc, 0xf9, 0xff, 0xff, 0x08, 0x00, 0x00, 0x00,
    0x48, 0x01, 0x00, 0x00, 0x28, 0x00, 0x00, 0x00, 0x00, 0x00, 0x00, 0x00, 0x00, 0x00, 0x00, 0x00,
    0x00, 0x00, 0x00, 0x00, 0x00, 0x00, 0x00, 0x00, 0x00, 0x00, 0x00, 0x00, 0x00, 0x00, 0x00, 0x00,
    0x00, 0x00, 0x00, 0x00, 0x00, 0x00, 0x00, 0x00, 0x00, 0x00, 0x00, 0x00, 0x00, 0x00, 0x00, 0x00,
    0x00, 0x00, 0x00, 0x00, 0x00, 0x00, 0x00, 0x00, 0x00, 0x00, 0x00, 0x00, 0x00, 0x00, 0x00, 0x00,
    0x00, 0x00, 0x00, 0x00, 0x00, 0x00, 0x00, 0x00, 0x00, 0x00, 0x00, 0x00, 0x00, 0x00, 0x00, 0x00,
    0x00, 0x00, 0x00, 0x00, 0x00, 0x00, 0x00, 0x00, 0x00, 0x00, 0x00, 0x00, 0x00, 0x00, 0x00, 0x00,
    0x00, 0x00, 0x00, 0x00, 0x00, 0x00, 0x00, 0x00, 0x00, 0x00, 0x00, 0x00, 0x00, 0x00, 0x00, 0x00,
    0x00, 0x00, 0x00, 0x00, 0x00, 0x00, 0x00, 0x00, 0x00, 0x00, 0x00, 0x00, 0x00, 0x00, 0x00, 0x00,
    0x00, 0x00, 0x00, 0x00, 0x00, 0x00, 0x00, 0x00, 0x00, 0x00, 0x00, 0x00, 0x00, 0x00, 0x00, 0x00,
    0x00, 0x00, 0x00, 0x00, 0x00, 0x00, 0x00, 0x00, 0x00, 0x00, 0x00, 0x00, 0x00, 0x00, 0x00, 0x00,
    0x00, 0x00, 0x00, 0x00, 0x00, 0x00, 0x00, 0x00, 0x00, 0x00, 0x00, 0x00, 0x00, 0x00, 0x00, 0x00,
    0x00, 0x00, 0x00, 0x00, 0x00, 0x00, 0x00, 0x00, 0x00, 0x00, 0x00, 0x00, 0x00, 0x00, 0x00, 0x00,
    0x00, 0x00, 0x00, 0x00, 0x00, 0x00, 0x00, 0x00, 0x00, 0x00, 0x00, 0x00, 0x00, 0x00, 0x00, 0x00,
    0x00, 0x00, 0x00, 0x00, 0x00, 0x00, 0x00, 0x00, 0x00, 0x00, 0x00, 0x00, 0x00, 0x00, 0x00, 0x00,
    0x00, 0x00, 0x00, 0x00, 0x00, 0x00, 0x00, 0x00, 0x00, 0x00, 0x00, 0x00, 0x00, 0x00, 0x00, 0x00,
    0x00, 0x00, 0x00, 0x00, 0x00, 0x00, 0x00, 0x00, 0x00, 0x00, 0x00, 0x00, 0x00, 0x00, 0x00, 0x00,
    0x00, 0x00, 0x00, 0x00, 0x00, 0x00, 0x00, 0x00, 0x00, 0x00, 0x00, 0x00, 0x00, 0x00, 0x00, 0x00,
    0x00, 0x00, 0x00, 0x00, 0x00, 0x00, 0x00, 0x00, 0x00, 0x00, 0x00, 0x00, 0x00, 0x00, 0x00, 0x00,
    0x00, 0x00, 0x00, 0x00, 0x00, 0x00, 0x00, 0x00, 0x00, 0x00, 0x00, 0x00, 0x00, 0x00, 0x00, 0x00,
    0x00, 0x00, 0x00, 0x00, 0x00, 0x00, 0x00, 0x00, 0x00, 0x00, 0x00, 0x00, 0x00, 0x00, 0x00, 0x00,
    0x00, 0x00, 0x00, 0x00, 0x00, 0x00, 0x00, 0x00, 0x28, 0x00, 0x00, 0x00, 0xb8, 0x03, 0x9e, 0x3b,
    0x35, 0xc7, 0x68, 0x3b, 0x54, 0x93, 0x90, 0x3b, 0x9d, 0xc3, 0x99, 0x3b, 0x3f, 0xb5, 0x80, 0x3b,
    0xd7, 0xfd, 0x92, 0x3b, 0x45, 0x8e, 0x9a, 0x3b, 0x4b, 0x0b, 0x63, 0x3b, 0xf6, 0xe5, 0x70, 0x3b,
    0x9f, 0xac, 0x7f, 0x3b, 0x2f, 0x04, 0x5e, 0x3b, 0x06, 0x28, 0x89, 0x3b, 0xbd, 0x74, 0x6a, 0x3b,
    0x23, 0x70, 0xac, 0x3b, 0xe9, 0x6c, 0x84, 0x3b, 0xfe, 0x53, 0x87, 0x3b, 0xb5, 0x83, 0x96, 0x3b,
    0xb2, 0x40, 0xac, 0x3b, 0x58, 0xf7, 0x0b, 0x3b, 0x09, 0x6d, 0xb6, 0x3b, 0x87, 0x0e, 0xa2, 0x3b,
    0xb2, 0x77, 0x72, 0x3b, 0x60, 0x59, 0xb5, 0x3b, 0x38, 0x89, 0xf2, 0x3a, 0x30, 0x00, 0x84, 0x3b,
    0x12, 0xbd, 0x8f, 0x3b, 0x64, 0x11, 0x8a, 0x3b, 0xd0, 0xf8, 0x1f, 0x3b, 0x8f, 0xfa, 0x3e, 0x3b,
    0xd2, 0xa9, 0x9f, 0x3b, 0x79, 0xa3, 0x70, 0x3b, 0x2e, 0x47, 0x99, 0x3b, 0xaf, 0x53, 0x8f, 0x3b,
    0xe4, 0x5c, 0x72, 0x3b, 0xa9, 0x22, 0x97, 0x3b, 0x0e, 0x57, 0x6b, 0x3b, 0x4a, 0x13, 0x81, 0x3b,
    0x6c, 0x20, 0x96, 0x3b, 0x51, 0x34, 0xaa, 0x3b, 0x1a, 0x80, 0xab, 0x3b, 0x2d, 0x00, 0x00, 0x00,
    0x45, 0x66, 0x66, 0x69, 0x63, 0x69, 0x65, 0x6e, 0x74, 0x4e, 0x65, 0x74, 0x56, 0x32, 0x2f, 0x73,
    0x74, 0x61, 0x67, 0x65, 0x33, 0x2e, 0x6d, 0x62, 0x63, 0x6f, 0x6e, 0x76, 0x31, 0x2e, 0x72, 0x65,
    0x64, 0x2e, 0x63, 0x6f, 0x6e, 0x76, 0x2f, 0x43, 0x6f, 0x6e, 0x76, 0x32, 0x44, 0x00, 0x00, 0x00,
    0x04, 0x00, 0x00, 0x00, 0x28, 0x00, 0x00, 0x00, 0x01, 0x00, 0x00, 0x00, 0x01, 0x00, 0x00, 0x00,
    0x20, 0x00, 0x00, 0x00, 0xca, 0xfc, 0xff, 0xff, 0x00, 0x00, 0x00, 0x01, 0x14, 0x00, 0x00, 0x00,
    0x08, 0x02, 0x00, 0x00, 0x05, 0x00, 0x00, 0x00, 0x00, 0x00, 0x00, 0x02, 0x38, 0x02, 0x00, 0x00,
    0x24, 0xfc, 0xff, 0xff, 0x08, 0x00, 0x00, 0x00, 0x4c, 0x01, 0x00, 0x00, 0x28, 0x00, 0x00, 0x00,
    0x00, 0x00, 0x00, 0x00, 0x00, 0x00, 0x00, 0x00, 0x00, 0x00, 0x00, 0x00, 0x00, 0x00, 0x00, 0x00,
    0x00, 0x00, 0x00, 0x00, 0x00, 0x00, 0x00, 0x00, 0x00, 0x00, 0x00, 0x00, 0x00, 0x00, 0x00, 0x00,
    0x00, 0x00, 0x00, 0x00, 0x00, 0x00, 0x00, 0x00, 0x00, 0x00, 0x00, 0x00, 0x00, 0x00, 0x00, 0x00,
    0x00, 0x00, 0x00, 0x00, 0x00, 0x00, 0x00, 0x00, 0x00, 0x00, 0x00, 0x00, 0x00, 0x00, 0x00, 0x00,
    0x00, 0x00, 0x00, 0x00, 0x00, 0x00, 0x00, 0x00, 0x00, 0x00, 0x00, 0x00, 0x00, 0x00, 0x00, 0x00,
    0x00, 0x00, 0x00, 0x00, 0x00, 0x00, 0x00, 0x00, 0x00, 0x00, 0x00, 0x00, 0x00, 0x00, 0x00, 0x00,
    0x00, 0x00, 0x00, 0x00, 0x00, 0x00, 0x00, 0x00, 0x00, 0x00, 0x00, 0x00, 0x00, 0x00, 0x00, 0x00,
    0x00, 0x00, 0x00, 0x00, 0x00, 0x00, 0x00, 0x00, 0x00, 0x00, 0x00, 0x00, 0x00, 0x00, 0x00, 0x00,
    0x00, 0x00, 0x00, 0x00, 0x00, 0x00, 0x00, 0x00, 0x00, 0x00, 0x00, 0x00, 0x00, 0x00, 0x00, 0x00,
    0x00, 0x00, 0x00, 0x00, 0x00, 0x00, 0x00, 0x00, 0x00, 0x00, 0x00, 0x00, 0x00, 0x00, 0x00, 0x00,
    0x00, 0x00, 0x00, 0x00, 0x00, 0x00, 0x00, 0x00, 0x00, 0x00, 0x00, 0x00, 0x00, 0x00, 0x00, 0x00,
    0x00, 0x00, 0x00, 0x00, 0x00, 0x00, 0x00, 0x00, 0x00, 0x00, 0x00, 0x00, 0x00, 0x00, 0x00, 0x00,
    0x00, 0x00, 0x00, 0x00, 0x00, 0x00, 0x00, 0x00, 0x00, 0x00, 0x00, 0x00, 0x00, 0x00, 0x00, 0x00,
    0x00, 0x00, 0x00, 0x00, 0x00, 0x00, 0x00, 0x00, 0x00, 0x00, 0x00, 0x00, 0x00, 0x00, 0x00, 0x00,
    0x00, 0x00, 0x00, 0x00, 0x00, 0x00, 0x00, 0x00, 0x00, 0x00, 0x00, 0x00, 0x00, 0x00, 0x00, 0x00,
    0x00, 0x00, 0x00, 0x00, 0x00, 0x00, 0x00, 0x00, 0x00, 0x00, 0x00, 0x00, 0x00, 0x00, 0x00, 0x00,
    0x00, 0x00, 0x00, 0x00, 0x00, 0x00, 0x00, 0x00, 0x00, 0x00, 0x00, 0x00, 0x00, 0x00, 0x00, 0x00,
    0x00, 0x00, 0x00, 0x00, 0x00, 0x00, 0x00, 0x00, 0x00, 0x00, 0x00, 0x00, 0x00, 0x00, 0x00, 0x00,
    0x00, 0x00, 0x00, 0x00, 0x00, 0x00, 0x00, 0x00, 0x00, 0x00, 0x00, 0x00, 0x00, 0x00, 0x00, 0x00,
    0x00, 0x00, 0x00, 0x00, 0x00, 0x00, 0x00, 0x00, 0x00, 0x00, 0x00, 0x00, 0x00, 0x00, 0x00, 0x00,
    0x00, 0x00, 0x00, 0x00, 0x28, 0x00, 0x00, 0x00, 0x88, 0xf3, 0xed, 0x38, 0xad, 0x44, 0xaf, 0x38,
    0xb5, 0xb6, 0xd9, 0x38, 0xf9, 0x8c, 0xe7, 0x38, 0xb0, 0xd1, 0xc1, 0x38, 0x1d, 0x5a, 0xdd, 0x38,
    0x26, 0xbe, 0xe8, 0x38, 0x6c, 0xf3, 0xaa, 0x38, 0xdb, 0x61, 0xb5, 0x38, 0xf9, 0x81, 0xc0, 0x38,
    0x4e, 0x2a, 0xa7, 0x38, 0x94, 0x8a, 0xce, 0x38, 0x16, 0x88, 0xb0, 0x38, 0xf0, 0xd5, 0x01, 0x39,
    0xc9, 0x6a, 0xc7, 0x38, 0xc7, 0xc9, 0xcb, 0x38, 0x38, 0xa8, 0xe2, 0x38, 0x38, 0xb2, 0x01, 0x39,
    0xca, 0xc5, 0x52, 0x38, 0x22, 0x5b, 0x09, 0x39, 0xd5, 0x09, 0xf4, 0x38, 0x56, 0x90, 0xb6, 0x38,
    0x94, 0x8b, 0x08, 0x39, 0x88, 0x9d, 0x36, 0x38, 0x0f, 0xc7, 0xc6, 0x38, 0x0f, 0x74, 0xd8, 0x38,
    0x00, 0xea, 0xcf, 0x38, 0x1e, 0xe6, 0x70, 0x38, 0xb7, 0xcb, 0x8f, 0x38, 0x2a, 0x6f, 0xf0, 0x38,
    0xcb, 0x2f, 0xb5, 0x38, 0x97, 0xd1, 0xe6, 0x38, 0x5c, 0xd5, 0xd7, 0x38, 0x27, 0x7c, 0xb6, 0x38,
    0x95, 0x97, 0xe3, 0x38, 0x7d, 0x32, 0xb1, 0x38, 0x4f, 0x5f, 0xc2, 0x38, 0xb5, 0x12, 0xe2, 0x38,
    0x64, 0x27, 0x00, 0x39, 0x35, 0x21, 0x01, 0x39, 0x35, 0x00, 0x00, 0x00, 0x45, 0x66, 0x66, 0x69,
    0x63, 0x69, 0x65, 0x6e, 0x74, 0x4e, 0x65, 0x74, 0x56, 0x32, 0x2f, 0x73, 0x74, 0x61, 0x67, 0x65,
    0x33, 0x2e, 0x6d, 0x62, 0x63, 0x6f, 0x6e, 0x76, 0x31, 0x2e, 0x72, 0x65, 0x64, 0x2e, 0x62, 0x6e,
    0x2f, 0x46, 0x75, 0x73, 0x65, 0x64, 0x42, 0x61, 0x74, 0x63, 0x68, 0x4e, 0x6f, 0x72, 0x6d, 0x56,
    0x33, 0x00, 0x00, 0x00, 0x01, 0x00, 0x00, 0x00, 0x28, 0x00, 0x00, 0x00, 0x22, 0xff, 0xff, 0xff,
    0x00, 0x00, 0x00, 0x01, 0x14, 0x00, 0x00, 0x00, 0x30, 0x00, 0x00, 0x00, 0x04, 0x00, 0x00, 0x00,
    0x00, 0x00, 0x00, 0x09, 0x44, 0x00, 0x00, 0x00, 0x7c, 0xfe, 0xff, 0xff, 0x08, 0x00, 0x00, 0x00,
    0x10, 0x00, 0x00, 0x00, 0x01, 0x00, 0x00, 0x00, 0x00, 0x00, 0x00, 0x00, 0x00, 0x00, 0x00, 0x00,
    0x01, 0x00, 0x00, 0x00, 0x36, 0x80, 0x3c, 0x3b, 0x19, 0x00, 0x00, 0x00, 0x45, 0x66, 0x66, 0x69,
    0x63, 0x69, 0x65, 0x6e, 0x74, 0x4e, 0x65, 0x74, 0x56, 0x32, 0x2f, 0x74, 0x6f, 0x70, 0x2f, 0x4d,
    0x61, 0x74, 0x4d, 0x75, 0x6c, 0x00, 0x00, 0x00, 0x02, 0x00, 0x00, 0x00, 0x02, 0x00, 0x00, 0x00,
    0x28, 0x00, 0x00, 0x00, 0x8a, 0xff, 0xff, 0xff, 0x00, 0x00, 0x00, 0x01, 0x14, 0x00, 0x00, 0x00,
    0x30, 0x00, 0x00, 0x00, 0x03, 0x00, 0x00, 0x00, 0x00, 0x00, 0x00, 0x02, 0x54, 0x00, 0x00, 0x00,
    0xe4, 0xfe, 0xff, 0xff, 0x08, 0x00, 0x00, 0x00, 0x10, 0x00, 0x00, 0x00, 0x01, 0x00, 0x00, 0x00,
    0x00, 0x00, 0x00, 0x00, 0x00, 0x00, 0x00, 0x00, 0x01, 0x00, 0x00, 0x00, 0x5a, 0x16, 0xeb, 0x37,
    0x29, 0x00, 0x00, 0x00, 0x45, 0x66, 0x66, 0x69, 0x63, 0x69, 0x65, 0x6e, 0x74, 0x4e, 0x65, 0x74,
    0x56, 0x32, 0x2f, 0x74, 0x6f, 0x70, 0x2f, 0x42, 0x69, 0x61, 0x73, 0x41, 0x64, 0x64, 0x2f, 0x52,
    0x65, 0x61, 0x64, 0x56, 0x61, 0x72, 0x69, 0x61, 0x62, 0x6c, 0x65, 0x4f, 0x70, 0x00, 0x00, 0x00,
    0x01, 0x00, 0x00, 0x00, 0x02, 0x00, 0x00, 0x00, 0x00, 0x00, 0x16, 0x00, 0x1c, 0x00, 0x18, 0x00,
    0x17, 0x00, 0x10, 0x00, 0x0c, 0x00, 0x08, 0x00, 0x00, 0x00, 0x00, 0x00, 0x00, 0x00, 0x07, 0x00,
    0x16, 0x00, 0x00, 0x00, 0x00, 0x00, 0x00, 0x01, 0x18, 0x00, 0x00, 0x00, 0x18, 0x00, 0x00, 0x00,
    0x02, 0x00, 0x00, 0x00, 0x00, 0x00, 0x00, 0x02, 0x40, 0x00, 0x00, 0x00, 0x04, 0x00, 0x04, 0x00,
    0x04, 0x00, 0x00, 0x00, 0x2e, 0x00, 0x00, 0x00, 0x45, 0x66, 0x66, 0x69, 0x63, 0x69, 0x65, 0x6e,
    0x74, 0x4e, 0x65, 0x74, 0x56, 0x32, 0x2f, 0x74, 0x6f, 0x70, 0x2e, 0x70, 0x6f, 0x6f, 0x6c, 0x2f,
    0x4d, 0x65, 0x61, 0x6e, 0x2f, 0x72, 0x65, 0x64, 0x75, 0x63, 0x74, 0x69, 0x6f, 0x6e, 0x5f, 0x69,
    0x6e, 0x64, 0x69, 0x63, 0x65, 0x73, 0x00, 0x00, 0x01, 0x00, 0x00, 0x00, 0x02, 0x00, 0x00, 0x00,
    0x00, 0x00, 0x16, 0x00, 0x20, 0x00, 0x1c, 0x00, 0x1b, 0x00, 0x14, 0x00, 0x10, 0x00, 0x0c, 0x00,
    0x00, 0x00, 0x00, 0x00, 0x08, 0x00, 0x07, 0x00, 0x16, 0x00, 0x00, 0x00, 0x00, 0x00, 0x00, 0x01,
    0x18, 0x00, 0x00, 0x00, 0x34, 0x00, 0x00, 0x00, 0x54, 0x00, 0x00, 0x00, 0x01, 0x00, 0x00, 0x00,
    0x00, 0x00, 0x00, 0x09, 0x68, 0x00, 0x00, 0x00, 0x04, 0x00, 0x00, 0x00, 0xff, 0xff, 0xff, 0xff,
    0x40, 0x00, 0x00, 0x00, 0x40, 0x00, 0x00, 0x00, 0x03, 0x00, 0x00, 0x00, 0x0c, 0x00, 0x0c, 0x00,
    0x00, 0x00, 0x00, 0x00, 0x08, 0x00, 0x04, 0x00, 0x0c, 0x00, 0x00, 0x00, 0x08, 0x00, 0x00, 0x00,
    0x14, 0x00, 0x00, 0x00, 0x01, 0x00, 0x00, 0x00, 0xff, 0xff, 0xff, 0xff, 0xff, 0xff, 0xff, 0xff,
    0x00, 0x00, 0x00, 0x00, 0x01, 0x00, 0x00, 0x00, 0x81, 0x80, 0x00, 0x3c, 0x19, 0x00, 0x00, 0x00,
    0x73, 0x65, 0x72, 0x76, 0x69, 0x6e, 0x67, 0x5f, 0x64, 0x65, 0x66, 0x61, 0x75, 0x6c, 0x74, 0x5f,
    0x69, 0x6e, 0x70, 0x75, 0x74, 0x5f, 0x31, 0x3a, 0x30, 0x00, 0x00, 0x00, 0x04, 0x00, 0x00, 0x00,
    0x01, 0x00, 0x00, 0x00, 0x40, 0x00, 0x00, 0x00, 0x40, 0x00, 0x00, 0x00, 0x03, 0x00, 0x00, 0x00,
    0x04, 0x00, 0x00, 0x00, 0x4c, 0x00, 0x00, 0x00, 0x2c, 0x00, 0x00, 0x00, 0x18, 0x00, 0x00, 0x00,
    0x04, 0x00, 0x00, 0x00, 0xd0, 0xff, 0xff, 0xff, 0x09, 0x00, 0x00, 0x00, 0x04, 0x00, 0x00, 0x00,
    0x00, 0x00, 0x00, 0x09, 0xe0, 0xff, 0xff, 0xff, 0x28, 0x00, 0x00, 0x00, 0x02, 0x00, 0x00, 0x00,
    0x00, 0x00, 0x00, 0x28, 0xf0, 0xff, 0xff, 0xff, 0x04, 0x00, 0x00, 0x00, 0x03, 0x00, 0x00, 0x00,
    0x00, 0x00, 0x00, 0x04, 0x0c, 0x00, 0x10, 0x00, 0x0f, 0x00, 0x00, 0x00, 0x08, 0x00, 0x04, 0x00,
    0x0c, 0x00, 0x00, 0x00, 0x03, 0x00, 0x00, 0x00, 0x03, 0x00, 0x00, 0x00, 0x00, 0x00, 0x00, 0x03,
};
const unsigned int g_tflm_model_len = 14784;
#endif // __G_TFLM_MODEL_H
