#ifndef __MUT_MODEL_H
#define __MUT_MODEL_H
alignas(16) NS_PUT_IN_TCM unsigned char mut_model[] = {
  0x1c, 0x00, 0x00, 0x00, 0x54, 0x46, 0x4c, 0x33, 0x14, 0x00, 0x20, 0x00, 
  0x1c, 0x00, 0x18, 0x00, 0x14, 0x00, 0x10, 0x00, 0x0c, 0x00, 0x00, 0x00, 
  0x08, 0x00, 0x04, 0x00, 0x14, 0x00, 0x00, 0x00, 0x1c, 0x00, 0x00, 0x00, 
  0x8c, 0x00, 0x00, 0x00, 0xdc, 0x00, 0x00, 0x00, 0x90, 0xfd, 0x02, 0x00, 
  0xa0, 0xfd, 0x02, 0x00, 0xf0, 0xa8, 0x03, 0x00, 0x03, 0x00, 0x00, 0x00, 
  0x01, 0x00, 0x00, 0x00, 0x04, 0x00, 0x00, 0x00, 0xda, 0xdc, 0xfc, 0xff, 
  0x0c, 0x00, 0x00, 0x00, 0x1c, 0x00, 0x00, 0x00, 0x44, 0x00, 0x00, 0x00, 
  0x0f, 0x00, 0x00, 0x00, 0x73, 0x65, 0x72, 0x76, 0x69, 0x6e, 0x67, 0x5f, 
  0x64, 0x65, 0x66, 0x61, 0x75, 0x6c, 0x74, 0x00, 0x01, 0x00, 0x00, 0x00, 
  0x04, 0x00, 0x00, 0x00, 0xfc, 0xde, 0xfc, 0xff, 0x98, 0x00, 0x00, 0x00, 
  0x04, 0x00, 0x00, 0x00, 0x12, 0x00, 0x00, 0x00, 0x6e, 0x65, 0x75, 0x72, 
  0x61, 0x6c, 0x5f, 0x6e, 0x65, 0x74, 0x5f, 0x63, 0x6c, 0x61, 0x73, 0x73, 
  0x5f, 0x31, 0x00, 0x00, 0x01, 0x00, 0x00, 0x00, 0x04, 0x00, 0x00, 0x00, 
  0xfa, 0xd9, 0xfc, 0xff, 0x04, 0x00, 0x00, 0x00, 0x07, 0x00, 0x00, 0x00, 
  0x69, 0x6e, 0x70, 0x75, 0x74, 0x5f, 0x33, 0x00, 0x02, 0x00, 0x00, 0x00, 
  0x2c, 0x00, 0x00, 0x00, 0x04, 0x00, 0x00, 0x00, 0x48, 0xdf, 0xfc, 0xff, 
  0xc1, 0x00, 0x00, 0x00, 0x04, 0x00, 0x00, 0x00, 0x13, 0x00, 0x00, 0x00, 
  0x43, 0x4f, 0x4e, 0x56, 0x45, 0x52, 0x53, 0x49, 0x4f, 0x4e, 0x5f, 0x4d, 
  0x45, 0x54, 0x41, 0x44, 0x41, 0x54, 0x41, 0x00, 0x6c, 0xdf, 0xfc, 0xff, 
  0xb7, 0x00, 0x00, 0x00, 0x04, 0x00, 0x00, 0x00, 0x13, 0x00, 0x00, 0x00, 
  0x6d, 0x69, 0x6e, 0x5f, 0x72, 0x75, 0x6e, 0x74, 0x69, 0x6d, 0x65, 0x5f, 
  0x76, 0x65, 0x72, 0x73, 0x69, 0x6f, 0x6e, 0x00, 0xc2, 0x00, 0x00, 0x00, 
  0xb0, 0xfc, 0x02, 0x00, 0xa8, 0xfc, 0x02, 0x00, 0x78, 0xfc, 0x02, 0x00, 
  0x48, 0xfc, 0x02, 0x00, 0x18, 0xfc, 0x02, 0x00, 0xe8, 0xfb, 0x02, 0x00, 
  0xb8, 0xfb, 0x02, 0x00, 0x88, 0xfb, 0x02, 0x00, 0x58, 0xfb, 0x02, 0x00, 
  0x44, 0xfb, 0x02, 0x00, 0x24, 0xfb, 0x02, 0x00, 0x10, 0xfb, 0x02, 0x00, 
  0xf8, 0xfa, 0x02, 0x00, 0xc8, 0xfa, 0x02, 0x00, 0xb0, 0xfa, 0x02, 0x00, 
  0x70, 0xfa, 0x02, 0x00, 0x20, 0xfa, 0x02, 0x00, 0xe0, 0xf9, 0x02, 0x00, 
  0x90, 0xf9, 0x02, 0x00, 0x50, 0xf9, 0x02, 0x00, 0x00, 0xf9, 0x02, 0x00, 
  0xb0, 0xf8, 0x02, 0x00, 0x40, 0xf8, 0x02, 0x00, 0xb0, 0xf7, 0x02, 0x00, 
  0x40, 0xf7, 0x02, 0x00, 0xb0, 0xf6, 0x02, 0x00, 0x40, 0xf6, 0x02, 0x00, 
  0xb0, 0xf5, 0x02, 0x00, 0x40, 0xf5, 0x02, 0x00, 0x20, 0xf5, 0x02, 0x00, 
  0x00, 0xf5, 0x02, 0x00, 0xe0, 0xf4, 0x02, 0x00, 0xc0, 0xf4, 0x02, 0x00, 
  0xac, 0xf4, 0x02, 0x00, 0x8c, 0xf4, 0x02, 0x00, 0x6c, 0xf4, 0x02, 0x00, 
  0x54, 0xf4, 0x02, 0x00, 0x3c, 0xf4, 0x02, 0x00, 0x24, 0xf4, 0x02, 0x00, 
  0x0c, 0xf4, 0x02, 0x00, 0xec, 0xf3, 0x02, 0x00, 0xd0, 0xf3, 0x02, 0x00, 
  0xbc, 0xef, 0x02, 0x00, 0xb4, 0xef, 0x02, 0x00, 0xe4, 0xeb, 0x02, 0x00, 
  0x54, 0xeb, 0x02, 0x00, 0x44, 0x0a, 0x02, 0x00, 0x34, 0x29, 0x01, 0x00, 
  0x20, 0x27, 0x00, 0x00, 0x18, 0x27, 0x00, 0x00, 0x10, 0x27, 0x00, 0x00, 
  0x08, 0x27, 0x00, 0x00, 0x00, 0x27, 0x00, 0x00, 0xf8, 0x26, 0x00, 0x00, 
  0xf0, 0x26, 0x00, 0x00, 0xe8, 0x26, 0x00, 0x00, 0xe0, 0x26, 0x00, 0x00, 
  0xd8, 0x26, 0x00, 0x00, 0xd0, 0x26, 0x00, 0x00, 0xc8, 0x26, 0x00, 0x00, 
  0xc0, 0x26, 0x00, 0x00, 0xb8, 0x26, 0x00, 0x00, 0xb0, 0x26, 0x00, 0x00, 
  0xa8, 0x26, 0x00, 0x00, 0xa0, 0x26, 0x00, 0x00, 0x98, 0x26, 0x00, 0x00, 
  0x90, 0x26, 0x00, 0x00, 0x88, 0x26, 0x00, 0x00, 0x80, 0x26, 0x00, 0x00, 
  0x78, 0x26, 0x00, 0x00, 0x70, 0x26, 0x00, 0x00, 0x68, 0x26, 0x00, 0x00, 
  0x60, 0x26, 0x00, 0x00, 0x58, 0x26, 0x00, 0x00, 0x50, 0x26, 0x00, 0x00, 
  0x48, 0x26, 0x00, 0x00, 0x40, 0x26, 0x00, 0x00, 0x38, 0x26, 0x00, 0x00, 
  0x30, 0x26, 0x00, 0x00, 0x28, 0x26, 0x00, 0x00, 0x20, 0x26, 0x00, 0x00, 
  0x18, 0x26, 0x00, 0x00, 0x10, 0x26, 0x00, 0x00, 0x08, 0x26, 0x00, 0x00, 
  0x00, 0x26, 0x00, 0x00, 0xf8, 0x25, 0x00, 0x00, 0xf0, 0x25, 0x00, 0x00, 
  0xe8, 0x25, 0x00, 0x00, 0xe0, 0x25, 0x00, 0x00, 0xd8, 0x25, 0x00, 0x00, 
  0xd0, 0x25, 0x00, 0x00, 0xc8, 0x25, 0x00, 0x00, 0xc0, 0x25, 0x00, 0x00, 
  0xb8, 0x25, 0x00, 0x00, 0xb0, 0x25, 0x00, 0x00, 0xa8, 0x25, 0x00, 0x00, 
  0xa0, 0x25, 0x00, 0x00, 0x98, 0x25, 0x00, 0x00, 0x90, 0x25, 0x00, 0x00, 
  0x88, 0x25, 0x00, 0x00, 0x80, 0x25, 0x00, 0x00, 0x78, 0x25, 0x00, 0x00, 
  0x70, 0x25, 0x00, 0x00, 0x68, 0x25, 0x00, 0x00, 0x60, 0x25, 0x00, 0x00, 
  0x58, 0x25, 0x00, 0x00, 0x50, 0x25, 0x00, 0x00, 0x48, 0x25, 0x00, 0x00, 
  0x40, 0x25, 0x00, 0x00, 0x38, 0x25, 0x00, 0x00, 0x30, 0x25, 0x00, 0x00, 
  0x28, 0x25, 0x00, 0x00, 0x20, 0x25, 0x00, 0x00, 0x18, 0x25, 0x00, 0x00, 
  0x10, 0x25, 0x00, 0x00, 0x08, 0x25, 0x00, 0x00, 0x00, 0x25, 0x00, 0x00, 
  0xf8, 0x24, 0x00, 0x00, 0xf0, 0x24, 0x00, 0x00, 0xe8, 0x24, 0x00, 0x00, 
  0xe0, 0x24, 0x00, 0x00, 0xd8, 0x24, 0x00, 0x00, 0xd0, 0x24, 0x00, 0x00, 
  0xc8, 0x24, 0x00, 0x00, 0xc0, 0x24, 0x00, 0x00, 0xb8, 0x24, 0x00, 0x00, 
  0xb0, 0x24, 0x00, 0x00, 0xa8, 0x24, 0x00, 0x00, 0xa0, 0x24, 0x00, 0x00, 
  0x98, 0x24, 0x00, 0x00, 0x90, 0x24, 0x00, 0x00, 0x88, 0x24, 0x00, 0x00, 
  0x80, 0x24, 0x00, 0x00, 0x78, 0x24, 0x00, 0x00, 0x70, 0x24, 0x00, 0x00, 
  0x68, 0x24, 0x00, 0x00, 0x60, 0x24, 0x00, 0x00, 0x58, 0x24, 0x00, 0x00, 
  0x50, 0x24, 0x00, 0x00, 0x48, 0x24, 0x00, 0x00, 0x40, 0x24, 0x00, 0x00, 
  0x38, 0x24, 0x00, 0x00, 0x30, 0x24, 0x00, 0x00, 0x28, 0x24, 0x00, 0x00, 
  0x20, 0x24, 0x00, 0x00, 0x18, 0x24, 0x00, 0x00, 0x10, 0x24, 0x00, 0x00, 
  0x08, 0x24, 0x00, 0x00, 0x00, 0x24, 0x00, 0x00, 0xf8, 0x23, 0x00, 0x00, 
  0xf0, 0x23, 0x00, 0x00, 0xe8, 0x23, 0x00, 0x00, 0xe0, 0x23, 0x00, 0x00, 
  0xd8, 0x23, 0x00, 0x00, 0xd0, 0x23, 0x00, 0x00, 0xc8, 0x23, 0x00, 0x00, 
  0xc0, 0x23, 0x00, 0x00, 0xb8, 0x23, 0x00, 0x00, 0xa8, 0x1b, 0x00, 0x00, 
  0xa8, 0x17, 0x00, 0x00, 0xa8, 0x15, 0x00, 0x00, 0xa8, 0x14, 0x00, 0x00, 
  0xa8, 0x13, 0x00, 0x00, 0xa8, 0x11, 0x00, 0x00, 0xa8, 0x0d, 0x00, 0x00, 
  0x98, 0x05, 0x00, 0x00, 0x84, 0x03, 0x00, 0x00, 0x84, 0x02, 0x00, 0x00, 
  0x7c, 0x02, 0x00, 0x00, 0x74, 0x02, 0x00, 0x00, 0x6c, 0x02, 0x00, 0x00, 
  0x64, 0x02, 0x00, 0x00, 0x5c, 0x02, 0x00, 0x00, 0x54, 0x02, 0x00, 0x00, 
  0x4c, 0x02, 0x00, 0x00, 0x44, 0x02, 0x00, 0x00, 0x3c, 0x02, 0x00, 0x00, 
  0x34, 0x02, 0x00, 0x00, 0x2c, 0x02, 0x00, 0x00, 0x24, 0x02, 0x00, 0x00, 
  0x1c, 0x02, 0x00, 0x00, 0x14, 0x02, 0x00, 0x00, 0x0c, 0x02, 0x00, 0x00, 
  0xec, 0x01, 0x00, 0x00, 0xd8, 0x01, 0x00, 0x00, 0xa8, 0x01, 0x00, 0x00, 
  0x78, 0x01, 0x00, 0x00, 0x48, 0x01, 0x00, 0x00, 0x18, 0x01, 0x00, 0x00, 
  0xe8, 0x00, 0x00, 0x00, 0xb8, 0x00, 0x00, 0x00, 0x88, 0x00, 0x00, 0x00, 
  0x74, 0x00, 0x00, 0x00, 0x04, 0x00, 0x00, 0x00, 0x6e, 0xdd, 0xfc, 0xff, 
  0x04, 0x00, 0x00, 0x00, 0x60, 0x00, 0x00, 0x00, 0x0c, 0x00, 0x00, 0x00, 
  0x08, 0x00, 0x0e, 0x00, 0x08, 0x00, 0x04, 0x00, 0x08, 0x00, 0x00, 0x00, 
  0x14, 0x00, 0x00, 0x00, 0x30, 0x00, 0x00, 0x00, 0x00, 0x00, 0x0a, 0x00, 
  0x0c, 0x00, 0x08, 0x00, 0x00, 0x00, 0x07, 0x00, 0x0a, 0x00, 0x00, 0x00, 
  0x00, 0x00, 0x00, 0x01, 0x04, 0x00, 0x00, 0x00, 0x01, 0x00, 0x00, 0x00, 
  0xec, 0x03, 0x00, 0x00, 0x00, 0x00, 0x0a, 0x00, 0x10, 0x00, 0x0c, 0x00, 
  0x08, 0x00, 0x04, 0x00, 0x0a, 0x00, 0x00, 0x00, 0x02, 0x00, 0x00, 0x00, 
  0x02, 0x00, 0x00, 0x00, 0x04, 0x00, 0x00, 0x00, 0x06, 0x00, 0x00, 0x00, 
  0x32, 0x2e, 0x31, 0x35, 0x2e, 0x31, 0x00, 0x00, 0xda, 0xdd, 0xfc, 0xff, 
  0x04, 0x00, 0x00, 0x00, 0x04, 0x00, 0x00, 0x00, 0x6c, 0xff, 0xff, 0xff, 
  0xea, 0xdd, 0xfc, 0xff, 0x04, 0x00, 0x00, 0x00, 0x20, 0x00, 0x00, 0x00, 
  0x3b, 0x04, 0x00, 0x00, 0x4f, 0x0f, 0x00, 0x00, 0x69, 0x00, 0x00, 0x00, 
  0x64, 0x11, 0x00, 0x00, 0x63, 0x04, 0x00, 0x00, 0x16, 0x01, 0x00, 0x00, 
  0x4c, 0x04, 0x00, 0x00, 0x41, 0x08, 0x00, 0x00, 0x16, 0xde, 0xfc, 0xff, 
  0x04, 0x00, 0x00, 0x00, 0x20, 0x00, 0x00, 0x00, 0x96, 0x0b, 0x00, 0x00, 
  0x10, 0x04, 0x00, 0x00, 0x49, 0x0e, 0x00, 0x00, 0x7d, 0x11, 0x00, 0x00, 
  0x8f, 0x0f, 0x00, 0x00, 0x23, 0x07, 0x00, 0x00, 0x76, 0x0d, 0x00, 0x00, 
  0x26, 0xf3, 0xff, 0xff, 0x42, 0xde, 0xfc, 0xff, 0x04, 0x00, 0x00, 0x00, 
  0x20, 0x00, 0x00, 0x00, 0xdf, 0xd7, 0xff, 0xff, 0xf5, 0xc3, 0x00, 0x00, 
  0xf6, 0x79, 0x00, 0x00, 0x0e, 0x1a, 0x00, 0x00, 0x3e, 0x8c, 0x00, 0x00, 
  0x9b, 0x68, 0x00, 0x00, 0x21, 0x3a, 0x00, 0x00, 0xcf, 0x45, 0x00, 0x00, 
  0x6e, 0xde, 0xfc, 0xff, 0x04, 0x00, 0x00, 0x00, 0x20, 0x00, 0x00, 0x00, 
  0x08, 0x03, 0x00, 0x00, 0x59, 0x06, 0x00, 0x00, 0xeb, 0x0d, 0x00, 0x00, 
  0xd4, 0xf9, 0xff, 0xff, 0x53, 0xf8, 0xff, 0xff, 0x17, 0x04, 0x00, 0x00, 
  0x79, 0x11, 0x00, 0x00, 0x69, 0x04, 0x00, 0x00, 0x9a, 0xde, 0xfc, 0xff, 
  0x04, 0x00, 0x00, 0x00, 0x20, 0x00, 0x00, 0x00, 0xd1, 0x06, 0x00, 0x00, 
  0x52, 0x28, 0x00, 0x00, 0x3d, 0x0c, 0x00, 0x00, 0x1c, 0x12, 0x00, 0x00, 
  0x92, 0x03, 0x00, 0x00, 0xaa, 0xfc, 0xff, 0xff, 0xd6, 0xf7, 0xff, 0xff, 
  0x56, 0x03, 0x00, 0x00, 0xc6, 0xde, 0xfc, 0xff, 0x04, 0x00, 0x00, 0x00, 
  0x20, 0x00, 0x00, 0x00, 0xd4, 0x07, 0x00, 0x00, 0x8f, 0x0b, 0x00, 0x00, 
  0x93, 0x0e, 0x00, 0x00, 0x09, 0x02, 0x00, 0x00, 0x58, 0x06, 0x00, 0x00, 
  0xb8, 0x02, 0x00, 0x00, 0x63, 0x01, 0x00, 0x00, 0xd9, 0x0d, 0x00, 0x00, 
  0xf2, 0xde, 0xfc, 0xff, 0x04, 0x00, 0x00, 0x00, 0x20, 0x00, 0x00, 0x00, 
  0x98, 0xc2, 0x00, 0x00, 0x1f, 0x36, 0xfe, 0xff, 0xfa, 0xfe, 0xff, 0xff, 
  0x44, 0x25, 0x00, 0x00, 0xf0, 0x07, 0x00, 0x00, 0xed, 0x3b, 0x00, 0x00, 
  0xf3, 0xfc, 0xff, 0xff, 0x07, 0x05, 0x00, 0x00, 0x1e, 0xdf, 0xfc, 0xff, 
  0x04, 0x00, 0x00, 0x00, 0x04, 0x00, 0x00, 0x00, 0x00, 0x00, 0x00, 0x00, 
  0x2e, 0xdf, 0xfc, 0xff, 0x04, 0x00, 0x00, 0x00, 0x10, 0x00, 0x00, 0x00, 
  0x32, 0x2e, 0x39, 0x2e, 0x30, 0x00, 0x00, 0x00, 0x00, 0x00, 0x00, 0x00, 
  0x00, 0x00, 0x00, 0x00, 0xec, 0x5d, 0xfc, 0xff, 0xf0, 0x5d, 0xfc, 0xff, 
  0xf4, 0x5d, 0xfc, 0xff, 0xf8, 0x5d, 0xfc, 0xff, 0xfc, 0x5d, 0xfc, 0xff, 
  0x00, 0x5e, 0xfc, 0xff, 0x04, 0x5e, 0xfc, 0xff, 0x08, 0x5e, 0xfc, 0xff, 
  0x0c, 0x5e, 0xfc, 0xff, 0x10, 0x5e, 0xfc, 0xff, 0x14, 0x5e, 0xfc, 0xff, 
  0x18, 0x5e, 0xfc, 0xff, 0x1c, 0x5e, 0xfc, 0xff, 0x20, 0x5e, 0xfc, 0xff, 
  0x24, 0x5e, 0xfc, 0xff, 0x86, 0xdf, 0xfc, 0xff, 0x04, 0x00, 0x00, 0x00, 
  0xf0, 0x00, 0x00, 0x00, 0x51, 0x00, 0x7a, 0xff, 0xe7, 0xff, 0xb9, 0x00, 
  0x72, 0x00, 0x23, 0x00, 0xa6, 0xff, 0xc4, 0x00, 0x79, 0x00, 0x15, 0x00, 
  0xf5, 0xff, 0x0d, 0x00, 0xf2, 0xff, 0xa0, 0xff, 0xaf, 0x00, 0x18, 0x01, 
  0x44, 0xff, 0xaa, 0xff, 0xcf, 0x00, 0x60, 0xff, 0x18, 0x00, 0xd0, 0xfe, 
  0x5d, 0xff, 0xc2, 0xfd, 0x53, 0x03, 0x9a, 0x00, 0xaf, 0xfe, 0x84, 0xfe, 
  0x2e, 0x00, 0x38, 0xff, 0xa6, 0xff, 0x84, 0xf7, 0x26, 0x00, 0x1d, 0x00, 
  0x09, 0x01, 0x11, 0x00, 0xfc, 0xff, 0x5a, 0xff, 0xb5, 0x00, 0x7f, 0xfa, 
  0x79, 0xff, 0x69, 0x01, 0x31, 0x00, 0x22, 0xff, 0x2f, 0x00, 0x21, 0x00, 
  0x09, 0x00, 0x20, 0x00, 0x9b, 0x00, 0xda, 0xff, 0x92, 0xfe, 0x19, 0x00, 
  0x2f, 0x00, 0x6b, 0x00, 0x73, 0x00, 0x54, 0xfe, 0x0e, 0xff, 0x74, 0xff, 
  0xd9, 0x02, 0xe1, 0xff, 0xe5, 0xff, 0xbd, 0xff, 0x10, 0x01, 0xc8, 0xff, 
  0x3b, 0xff, 0x9b, 0x00, 0x08, 0xff, 0x5b, 0xff, 0x5f, 0x00, 0x7b, 0xff, 
  0xf3, 0xfe, 0x2e, 0x00, 0x7c, 0xfe, 0xc6, 0x00, 0x4b, 0x00, 0x67, 0x00, 
  0x21, 0xff, 0x30, 0xff, 0x34, 0x07, 0x42, 0x01, 0x43, 0xfd, 0xd4, 0xfe, 
  0x27, 0x01, 0xda, 0xff, 0x9e, 0x05, 0xc5, 0xfe, 0x3c, 0x00, 0x6b, 0x05, 
  0x55, 0x01, 0xfc, 0xfe, 0xb7, 0xfe, 0x2d, 0x00, 0xe1, 0x00, 0xce, 0x00, 
  0x61, 0xff, 0xa8, 0x0a, 0xe8, 0xf5, 0xdb, 0x01, 0xc2, 0xff, 0x98, 0x00, 
  0x6f, 0x03, 0xe3, 0xff, 0xe2, 0xfe, 0xb7, 0x00, 0xea, 0xff, 0xb0, 0x00, 
  0x9b, 0xff, 0x1a, 0xff, 0x8e, 0x00, 0x85, 0xfd, 0xd0, 0xff, 0x56, 0x00, 
  0x37, 0x02, 0x66, 0xff, 0x30, 0x00, 0x0b, 0x09, 0xa8, 0xfd, 0xf7, 0xff, 
  0xde, 0x00, 0x52, 0x00, 0x82, 0xe0, 0xfc, 0xff, 0x04, 0x00, 0x00, 0x00, 
  0x02, 0x02, 0x00, 0x00, 0xd6, 0xfe, 0x53, 0xfe, 0x26, 0xfe, 0x13, 0xfe, 
  0x9f, 0xfe, 0x84, 0xfe, 0xf3, 0xfd, 0x80, 0xfe, 0x76, 0xfe, 0x35, 0xfe, 
  0x0b, 0xfe, 0x11, 0xfe, 0x14, 0xfe, 0x18, 0xfe, 0x1d, 0xfe, 0x20, 0xfe, 
  0x23, 0xfe, 0x28, 0xfe, 0x2d, 0xfe, 0x33, 0xfe, 0x3c, 0xfe, 0x40, 0xfe, 
  0x46, 0xfe, 0x4d, 0xfe, 0x52, 0xfe, 0x87, 0xfe, 0x8a, 0xfe, 0x5d, 0xfe, 
  0x92, 0xfe, 0x62, 0xfe, 0xbc, 0xfe, 0x69, 0xfe, 0x6b, 0xfe, 0x6f, 0xfe, 
  0x74, 0xfe, 0x76, 0xfe, 0x78, 0xfe, 0x77, 0xfe, 0x79, 0xfe, 0x7d, 0xfe, 
  0x7f, 0xfe, 0x80, 0xfe, 0x7d, 0xfe, 0x7f, 0xfe, 0x81, 0xfe, 0x82, 0xfe, 
  0x82, 0xfe, 0x7f, 0xfe, 0x80, 0xfe, 0x82, 0xfe, 0x80, 0xfe, 0x82, 0xfe, 
  0x85, 0xfe, 0x85, 0xfe, 0x89, 0xfe, 0x8a, 0xfe, 0x87, 0xfe, 0x89, 0xfe, 
  0x8f, 0xfe, 0x8e, 0xfe, 0x90, 0xfe, 0x93, 0xfe, 0x92, 0xfe, 0x91, 0xfe, 
  0x93, 0xfe, 0x98, 0xfe, 0x99, 0xfe, 0x99, 0xfe, 0x9c, 0xfe, 0x9e, 0xfe, 
  0x9e, 0xfe, 0x9d, 0xfe, 0x9f, 0xfe, 0xa1, 0xfe, 0x9f, 0xfe, 0x9e, 0xfe, 
  0x9f, 0xfe, 0xa2, 0xfe, 0xa3, 0xfe, 0xa2, 0xfe, 0xa2, 0xfe, 0xa4, 0xfe, 
  0xa6, 0xfe, 0xa6, 0xfe, 0xa5, 0xfe, 0xa5, 0xfe, 0xa9, 0xfe, 0xac, 0xfe, 
  0xab, 0xfe, 0xab, 0xfe, 0xac, 0xfe, 0xae, 0xfe, 0xb0, 0xfe, 0xb1, 0xfe, 
  0xb1, 0xfe, 0xb0, 0xfe, 0xb2, 0xfe, 0xb5, 0xfe, 0xb5, 0xfe, 0xb5, 0xfe, 
  0xb5, 0xfe, 0xb5, 0xfe, 0xb7, 0xfe, 0xb9, 0xfe, 0xba, 0xfe, 0xba, 0xfe, 
  0xbb, 0xfe, 0xbd, 0xfe, 0xbf, 0xfe, 0xc1, 0xfe, 0xc2, 0xfe, 0xc2, 0xfe, 
  0xc1, 0xfe, 0xc2, 0xfe, 0xc4, 0xfe, 0xc6, 0xfe, 0xc8, 0xfe, 0xc8, 0xfe, 
  0xc9, 0xfe, 0xc9, 0xfe, 0xcb, 0xfe, 0xcd, 0xfe, 0xcf, 0xfe, 0xd0, 0xfe, 
  0xd0, 0xfe, 0xd0, 0xfe, 0xcf, 0xfe, 0xd0, 0xfe, 0xd2, 0xfe, 0xd6, 0xfe, 
  0xd8, 0xfe, 0xd8, 0xfe, 0xd9, 0xfe, 0xda, 0xfe, 0xdb, 0xfe, 0xdd, 0xfe, 
  0xdf, 0xfe, 0xe0, 0xfe, 0xe1, 0xfe, 0xe3, 0xfe, 0xe4, 0xfe, 0xe5, 0xfe, 
  0xe5, 0xfe, 0xe8, 0xfe, 0xea, 0xfe, 0xec, 0xfe, 0xed, 0xfe, 0xee, 0xfe, 
  0xee, 0xfe, 0xef, 0xfe, 0xef, 0xfe, 0xf0, 0xfe, 0xf2, 0xfe, 0xf4, 0xfe, 
  0xf5, 0xfe, 0xf6, 0xfe, 0xf8, 0xfe, 0xf9, 0xfe, 0xf9, 0xfe, 0xfa, 0xfe, 
  0xfa, 0xfe, 0xfd, 0xfe, 0xfe, 0xfe, 0xff, 0xfe, 0x00, 0xff, 0x01, 0xff, 
  0x01, 0xff, 0x02, 0xff, 0x02, 0xff, 0x02, 0xff, 0x03, 0xff, 0x05, 0xff, 
  0x07, 0xff, 0x07, 0xff, 0x08, 0xff, 0x08, 0xff, 0x09, 0xff, 0x09, 0xff, 
  0x0a, 0xff, 0x0a, 0xff, 0x0a, 0xff, 0x0c, 0xff, 0x0d, 0xff, 0x0d, 0xff, 
  0x0e, 0xff, 0x0e, 0xff, 0x0f, 0xff, 0x0f, 0xff, 0x0e, 0xff, 0x0e, 0xff, 
  0x0f, 0xff, 0x10, 0xff, 0x10, 0xff, 0x11, 0xff, 0x12, 0xff, 0x12, 0xff, 
  0x12, 0xff, 0x13, 0xff, 0x13, 0xff, 0x13, 0xff, 0x13, 0xff, 0x13, 0xff, 
  0x13, 0xff, 0x14, 0xff, 0x15, 0xff, 0x15, 0xff, 0x15, 0xff, 0x15, 0xff, 
  0x16, 0xff, 0x16, 0xff, 0x16, 0xff, 0x16, 0xff, 0x17, 0xff, 0x17, 0xff, 
  0x18, 0xff, 0x19, 0xff, 0x1a, 0xff, 0x1a, 0xff, 0x1b, 0xff, 0x1b, 0xff, 
  0x1b, 0xff, 0x1b, 0xff, 0x1b, 0xff, 0x1b, 0xff, 0x1b, 0xff, 0x1c, 0xff, 
  0x1c, 0xff, 0x1d, 0xff, 0x1d, 0xff, 0x1e, 0xff, 0x1f, 0xff, 0x1f, 0xff, 
  0x20, 0xff, 0x20, 0xff, 0x21, 0xff, 0x22, 0xff, 0x23, 0xff, 0x25, 0xff, 
  0x27, 0xff, 0x29, 0xff, 0x2d, 0xff, 0x31, 0xff, 0x36, 0xff, 0x3d, 0xff, 
  0x44, 0xff, 0x4d, 0xff, 0x56, 0xff, 0x60, 0xff, 0x6a, 0xff, 0x73, 0xff, 
  0x7b, 0xff, 0x81, 0xff, 0x85, 0xff, 0x87, 0xff, 0x89, 0xff, 0x8a, 0xff, 
  0x92, 0xff, 0x00, 0x00, 0x92, 0xe2, 0xfc, 0xff, 0x04, 0x00, 0x00, 0x00, 
  0x00, 0x08, 0x00, 0x00, 0x00, 0x00, 0x00, 0x00, 0x00, 0x00, 0x00, 0x00, 
  0x00, 0x00, 0x00, 0x00, 0x00, 0x00, 0x00, 0x00, 0x00, 0x00, 0x00, 0x00, 
  0x00, 0x00, 0x00, 0x00, 0x00, 0x00, 0x00, 0x00, 0x00, 0x00, 0x00, 0x00, 
  0x00, 0x00, 0x00, 0x00, 0x00, 0x00, 0x00, 0x00, 0x00, 0x00, 0x00, 0x00, 
  0x00, 0x00, 0x00, 0x00, 0x00, 0x00, 0x00, 0x00, 0x00, 0x00, 0x00, 0x00, 
  0x00, 0x00, 0x00, 0x00, 0x00, 0x00, 0x00, 0x00, 0x00, 0x00, 0x00, 0x00, 
  0x00, 0x00, 0x00, 0x00, 0x00, 0x00, 0x00, 0x00, 0x00, 0x00, 0x00, 0x00, 
  0x00, 0x00, 0x00, 0x00, 0x00, 0x00, 0x00, 0x00, 0x00, 0x00, 0x00, 0x00, 
  0x00, 0x00, 0x00, 0x00, 0x00, 0x00, 0x00, 0x00, 0x00, 0x00, 0x00, 0x00, 
  0x00, 0x00, 0x00, 0x00, 0x00, 0x00, 0x00, 0x00, 0x00, 0x00, 0x00, 0x00, 
  0x00, 0x00, 0x00, 0x00, 0x00, 0x00, 0x00, 0x00, 0x00, 0x00, 0x00, 0x00, 
  0x00, 0x00, 0x00, 0x00, 0x00, 0x00, 0x00, 0x00, 0x00, 0x00, 0x00, 0x00, 
  0x00, 0x00, 0x00, 0x00, 0x00, 0x00, 0x00, 0x00, 0x00, 0x00, 0x00, 0x00, 
  0x00, 0x00, 0x00, 0x00, 0x00, 0x00, 0x00, 0x00, 0x00, 0x00, 0x00, 0x00, 
  0x00, 0x00, 0x00, 0x00, 0x00, 0x00, 0x00, 0x00, 0x00, 0x00, 0x00, 0x00, 
  0x00, 0x00, 0x00, 0x00, 0x00, 0x00, 0x00, 0x00, 0x00, 0x00, 0x00, 0x00, 
  0x00, 0x00, 0x00, 0x00, 0x00, 0x00, 0x00, 0x00, 0x00, 0x00, 0x00, 0x00, 
  0x00, 0x00, 0x00, 0x00, 0x00, 0x00, 0x00, 0x00, 0x00, 0x00, 0x00, 0x00, 
  0x00, 0x00, 0x00, 0x00, 0x00, 0x00, 0x00, 0x00, 0x00, 0x00, 0x00, 0x00, 
  0x00, 0x00, 0x00, 0x00, 0x00, 0x00, 0x00, 0x00, 0x00, 0x00, 0x00, 0x00, 
  0x00, 0x00, 0x00, 0x00, 0x00, 0x00, 0x00, 0x00, 0x00, 0x00, 0x00, 0x00, 
  0x00, 0x00, 0x00, 0x00, 0x00, 0x00, 0x00, 0x00, 0x00, 0x00, 0x00, 0x00, 
  0x00, 0x00, 0x00, 0x00, 0x00, 0x00, 0x00, 0x00, 0x00, 0x00, 0x00, 0x00, 
  0x00, 0x00, 0x00, 0x00, 0x00, 0x00, 0x00, 0x00, 0x00, 0x00, 0x00, 0x00, 
  0x00, 0x00, 0x00, 0x00, 0x00, 0x00, 0x00, 0x00, 0x00, 0x00, 0x00, 0x00, 
  0x00, 0x00, 0x00, 0x00, 0x00, 0x00, 0x00, 0x00, 0x00, 0x00, 0x00, 0x00, 
  0x00, 0x00, 0x00, 0x00, 0x00, 0x00, 0x00, 0x00, 0x00, 0x00, 0x00, 0x00, 
  0x00, 0x00, 0x00, 0x00, 0x00, 0x00, 0x00, 0x00, 0x00, 0x00, 0x00, 0x00, 
  0x00, 0x00, 0x00, 0x00, 0x00, 0x00, 0x00, 0x00, 0x00, 0x00, 0x00, 0x00, 
  0x00, 0x00, 0x00, 0x00, 0x00, 0x00, 0x00, 0x00, 0x00, 0x00, 0x00, 0x00, 
  0x00, 0x00, 0x00, 0x00, 0x00, 0x00, 0x00, 0x00, 0x00, 0x00, 0x00, 0x00, 
  0x00, 0x00, 0x00, 0x00, 0x00, 0x00, 0x00, 0x00, 0x00, 0x00, 0x00, 0x00, 
  0x00, 0x00, 0x00, 0x00, 0x00, 0x00, 0x00, 0x00, 0x00, 0x00, 0x00, 0x00, 
  0x00, 0x00, 0x00, 0x00, 0x00, 0x00, 0x00, 0x00, 0x00, 0x00, 0x00, 0x00, 
  0x00, 0x00, 0x00, 0x00, 0x00, 0x00, 0x00, 0x00, 0x00, 0x00, 0x00, 0x00, 
  0x00, 0x00, 0x00, 0x00, 0x00, 0x00, 0x00, 0x00, 0x00, 0x00, 0x00, 0x00, 
  0x00, 0x00, 0x00, 0x00, 0x00, 0x00, 0x00, 0x00, 0x00, 0x00, 0x00, 0x00, 
  0x00, 0x00, 0x00, 0x00, 0x00, 0x00, 0x00, 0x00, 0x00, 0x00, 0x00, 0x00, 
  0x00, 0x00, 0x00, 0x00, 0x00, 0x00, 0x00, 0x00, 0x00, 0x00, 0x00, 0x00, 
  0x00, 0x00, 0x00, 0x00, 0x00, 0x00, 0x00, 0x00, 0x00, 0x00, 0x00, 0x00, 
  0x00, 0x00, 0x00, 0x00, 0x00, 0x00, 0x00, 0x00, 0x00, 0x00, 0x00, 0x00, 
  0x00, 0x00, 0x00, 0x00, 0x00, 0x00, 0x00, 0x00, 0x00, 0x00, 0x00, 0x00, 
  0x00, 0x00, 0x00, 0x00, 0x00, 0x00, 0x00, 0x00, 0x00, 0x00, 0x00, 0x00, 
  0x00, 0x00, 0x00, 0x00, 0x00, 0x00, 0x00, 0x00, 0x00, 0x00, 0x00, 0x00, 
  0x00, 0x00, 0x00, 0x00, 0x00, 0x00, 0x00, 0x00, 0x00, 0x00, 0x00, 0x00, 
  0x00, 0x00, 0x00, 0x00, 0x00, 0x00, 0x00, 0x00, 0x00, 0x00, 0x00, 0x00, 
  0x00, 0x00, 0x00, 0x00, 0x00, 0x00, 0x00, 0x00, 0x00, 0x00, 0x00, 0x00, 
  0x00, 0x00, 0x00, 0x00, 0x00, 0x00, 0x00, 0x00, 0x00, 0x00, 0x00, 0x00, 
  0x00, 0x00, 0x00, 0x00, 0x00, 0x00, 0x00, 0x00, 0x00, 0x00, 0x00, 0x00, 
  0x00, 0x00, 0x00, 0x00, 0x00, 0x00, 0x00, 0x00, 0x00, 0x00, 0x00, 0x00, 
  0x00, 0x00, 0x00, 0x00, 0x00, 0x00, 0x00, 0x00, 0x00, 0x00, 0x00, 0x00, 
  0x00, 0x00, 0x00, 0x00, 0x00, 0x00, 0x00, 0x00, 0x00, 0x00, 0x00, 0x00, 
  0x00, 0x00, 0x00, 0x00, 0x00, 0x00, 0x00, 0x00, 0x00, 0x00, 0x00, 0x00, 
  0x00, 0x00, 0x00, 0x00, 0x00, 0x00, 0x00, 0x00, 0x00, 0x00, 0x00, 0x00, 
  0x00, 0x00, 0x00, 0x00, 0x00, 0x00, 0x00, 0x00, 0x00, 0x00, 0x00, 0x00, 
  0x00, 0x00, 0x00, 0x00, 0x00, 0x00, 0x00, 0x00, 0x00, 0x00, 0x00, 0x00, 
  0x00, 0x00, 0x00, 0x00, 0x00, 0x00, 0x00, 0x00, 0x00, 0x00, 0x00, 0x00, 
  0x00, 0x00, 0x00, 0x00, 0x00, 0x00, 0x00, 0x00, 0x00, 0x00, 0x00, 0x00, 
  0x00, 0x00, 0x00, 0x00, 0x00, 0x00, 0x00, 0x00, 0x00, 0x00, 0x00, 0x00, 
  0x00, 0x00, 0x00, 0x00, 0x00, 0x00, 0x00, 0x00, 0x00, 0x00, 0x00, 0x00, 
  0x00, 0x00, 0x00, 0x00, 0x00, 0x00, 0x00, 0x00, 0x00, 0x00, 0x00, 0x00, 
  0x00, 0x00, 0x00, 0x00, 0x00, 0x00, 0x00, 0x00, 0x00, 0x00, 0x00, 0x00, 
  0x00, 0x00, 0x00, 0x00, 0x00, 0x00, 0x00, 0x00, 0x00, 0x00, 0x00, 0x00, 
  0x00, 0x00, 0x00, 0x00, 0x00, 0x00, 0x00, 0x00, 0x00, 0x00, 0x00, 0x00, 
  0x00, 0x00, 0x00, 0x00, 0x00, 0x00, 0x00, 0x00, 0x00, 0x00, 0x00, 0x00, 
  0x00, 0x00, 0x00, 0x00, 0x00, 0x00, 0x00, 0x00, 0x00, 0x00, 0x00, 0x00, 
  0x00, 0x00, 0x00, 0x00, 0x00, 0x00, 0x00, 0x00, 0x00, 0x00, 0x00, 0x00, 
  0x00, 0x00, 0x00, 0x00, 0x00, 0x00, 0x00, 0x00, 0x00, 0x00, 0x00, 0x00, 
  0x00, 0x00, 0x00, 0x00, 0x00, 0x00, 0x00, 0x00, 0x00, 0x00, 0x00, 0x00, 
  0x00, 0x00, 0x00, 0x00, 0x00, 0x00, 0x00, 0x00, 0x00, 0x00, 0x00, 0x00, 
  0x00, 0x00, 0x00, 0x00, 0x00, 0x00, 0x00, 0x00, 0x00, 0x00, 0x00, 0x00, 
  0x00, 0x00, 0x00, 0x00, 0x00, 0x00, 0x00, 0x00, 0x00, 0x00, 0x00, 0x00, 
  0x00, 0x00, 0x00, 0x00, 0x00, 0x00, 0x00, 0x00, 0x00, 0x00, 0x00, 0x00, 
  0x00, 0x00, 0x00, 0x00, 0x00, 0x00, 0x00, 0x00, 0x00, 0x00, 0x00, 0x00, 
  0x00, 0x00, 0x00, 0x00, 0x00, 0x00, 0x00, 0x00, 0x00, 0x00, 0x00, 0x00, 
  0x00, 0x00, 0x00, 0x00, 0x00, 0x00, 0x00, 0x00, 0x00, 0x00, 0x00, 0x00, 
  0x00, 0x00, 0x00, 0x00, 0x00, 0x00, 0x00, 0x00, 0x00, 0x00, 0x00, 0x00, 
  0x00, 0x00, 0x00, 0x00, 0x00, 0x00, 0x00, 0x00, 0x00, 0x00, 0x00, 0x00, 
  0x00, 0x00, 0x00, 0x00, 0x00, 0x00, 0x00, 0x00, 0x00, 0x00, 0x00, 0x00, 
  0x00, 0x00, 0x00, 0x00, 0x00, 0x00, 0x00, 0x00, 0x00, 0x00, 0x00, 0x00, 
  0x00, 0x00, 0x00, 0x00, 0x00, 0x00, 0x00, 0x00, 0x00, 0x00, 0x00, 0x00, 
  0x00, 0x00, 0x00, 0x00, 0x00, 0x00, 0x00, 0x00, 0x00, 0x00, 0x00, 0x00, 
  0x00, 0x00, 0x00, 0x00, 0x00, 0x00, 0x00, 0x00, 0x00, 0x00, 0x00, 0x00, 
  0x00, 0x00, 0x00, 0x00, 0x00, 0x00, 0x00, 0x00, 0x00, 0x00, 0x00, 0x00, 
  0x00, 0x00, 0x00, 0x00, 0x00, 0x00, 0x00, 0x00, 0x00, 0x00, 0x00, 0x00, 
  0x00, 0x00, 0x00, 0x00, 0x00, 0x00, 0x00, 0x00, 0x7d, 0x00, 0x00, 0x00, 
  0x00, 0x00, 0x00, 0x00, 0xc8, 0x00, 0x00, 0x00, 0xa1, 0x00, 0x16, 0x01, 
  0x7d, 0x00, 0x00, 0x00, 0x00, 0x00, 0x00, 0x00, 0xc7, 0x00, 0x00, 0x00, 
  0xa0, 0x00, 0x13, 0x01, 0x7c, 0x00, 0x00, 0x00, 0x00, 0x00, 0x00, 0x00, 
  0xc5, 0x00, 0x00, 0x00, 0x9f, 0x00, 0x12, 0x01, 0x7c, 0x00, 0x00, 0x00, 
  0x00, 0x00, 0x00, 0x00, 0xc3, 0x00, 0x00, 0x00, 0x9d, 0x00, 0x0f, 0x01, 
  0x7b, 0x00, 0x00, 0x00, 0x00, 0x00, 0x00, 0x00, 0xc2, 0x00, 0x00, 0x00, 
  0x9b, 0x00, 0x0c, 0x01, 0x7b, 0x00, 0x00, 0x00, 0x00, 0x00, 0x00, 0x00, 
  0xc0, 0x00, 0x00, 0x00, 0x9a, 0x00, 0x0a, 0x01, 0x7a, 0x00, 0x00, 0x00, 
  0x00, 0x00, 0x00, 0x00, 0xbf, 0x00, 0x00, 0x00, 0x99, 0x00, 0x08, 0x01, 
  0x7a, 0x00, 0x00, 0x00, 0x00, 0x00, 0x00, 0x00, 0xbc, 0x00, 0x00, 0x00, 
  0x97, 0x00, 0x05, 0x01, 0x79, 0x00, 0x00, 0x00, 0x00, 0x00, 0x00, 0x00, 
  0xba, 0x00, 0x00, 0x00, 0x95, 0x00, 0x02, 0x01, 0x79, 0x00, 0x00, 0x00, 
  0x00, 0x00, 0x00, 0x00, 0xb9, 0x00, 0x00, 0x00, 0x94, 0x00, 0x00, 0x01, 
  0x78, 0x00, 0x00, 0x00, 0x00, 0x00, 0x00, 0x00, 0xb8, 0x00, 0x00, 0x00, 
  0x93, 0x00, 0xff, 0x00, 0x78, 0x00, 0x00, 0x00, 0x00, 0x00, 0x00, 0x00, 
  0xb7, 0x00, 0x00, 0x00, 0x92, 0x00, 0xfe, 0x00, 0x78, 0x00, 0x00, 0x00, 
  0x00, 0x00, 0x00, 0x00, 0xb5, 0x00, 0x00, 0x00, 0x90, 0x00, 0xfa, 0x00, 
  0x77, 0x00, 0x00, 0x00, 0x00, 0x00, 0x00, 0x00, 0xb3, 0x00, 0x00, 0x00, 
  0x8f, 0x00, 0xf8, 0x00, 0x77, 0x00, 0x00, 0x00, 0x00, 0x00, 0x00, 0x00, 
  0xb2, 0x00, 0x00, 0x00, 0x8e, 0x00, 0xf6, 0x00, 0x76, 0x00, 0x00, 0x00, 
  0x00, 0x00, 0x00, 0x00, 0xb1, 0x00, 0x00, 0x00, 0x8d, 0x00, 0xf5, 0x00, 
  0x76, 0x00, 0x00, 0x00, 0x00, 0x00, 0x00, 0x00, 0xaf, 0x00, 0x00, 0x00, 
  0x8c, 0x00, 0xf3, 0x00, 0x75, 0x00, 0x00, 0x00, 0x00, 0x00, 0x00, 0x00, 
  0xae, 0x00, 0x00, 0x00, 0x8a, 0x00, 0xf0, 0x00, 0x75, 0x00, 0x00, 0x00, 
  0x00, 0x00, 0x00, 0x00, 0xad, 0x00, 0x00, 0x00, 0x89, 0x00, 0xef, 0x00, 
  0x75, 0x00, 0x00, 0x00, 0x00, 0x00, 0x00, 0x00, 0xac, 0x00, 0x00, 0x00, 
  0x89, 0x00, 0xee, 0x00, 0x75, 0x00, 0x00, 0x00, 0x00, 0x00, 0x00, 0x00, 
  0xac, 0x00, 0x00, 0x00, 0x88, 0x00, 0xee, 0x00, 0x74, 0x00, 0x00, 0x00, 
  0x00, 0x00, 0x00, 0x00, 0xaa, 0x00, 0x00, 0x00, 0x87, 0x00, 0xeb, 0x00, 
  0x74, 0x00, 0x00, 0x00, 0x00, 0x00, 0x00, 0x00, 0xa8, 0x00, 0x00, 0x00, 
  0x86, 0x00, 0xe9, 0x00, 0x74, 0x00, 0x00, 0x00, 0x00, 0x00, 0x00, 0x00, 
  0xa8, 0x00, 0x00, 0x00, 0x85, 0x00, 0xe8, 0x00, 0x73, 0x00, 0x00, 0x00, 
  0x00, 0x00, 0x00, 0x00, 0xa7, 0x00, 0x00, 0x00, 0x85, 0x00, 0xe7, 0x00, 
  0x73, 0x00, 0x00, 0x00, 0x00, 0x00, 0x00, 0x00, 0xa7, 0x00, 0x00, 0x00, 
  0x84, 0x00, 0xe7, 0x00, 0x73, 0x00, 0x00, 0x00, 0x00, 0x00, 0x00, 0x00, 
  0xa5, 0x00, 0x00, 0x00, 0x83, 0x00, 0xe5, 0x00, 0x73, 0x00, 0x00, 0x00, 
  0x00, 0x00, 0x00, 0x00, 0xa5, 0x00, 0x00, 0x00, 0x82, 0x00, 0xe4, 0x00, 
  0x73, 0x00, 0x00, 0x00, 0x00, 0x00, 0x00, 0x00, 0xa4, 0x00, 0x00, 0x00, 
  0x82, 0x00, 0xe3, 0x00, 0x72, 0x00, 0x00, 0x00, 0x00, 0x00, 0x00, 0x00, 
  0xa4, 0x00, 0x00, 0x00, 0x82, 0x00, 0xe2, 0x00, 0x73, 0x00, 0x00, 0x00, 
  0x00, 0x00, 0x00, 0x00, 0xa4, 0x00, 0x00, 0x00, 0x82, 0x00, 0xe3, 0x00, 
  0x72, 0x00, 0x00, 0x00, 0x00, 0x00, 0x00, 0x00, 0xa3, 0x00, 0x00, 0x00, 
  0x81, 0x00, 0xe1, 0x00, 0x72, 0x00, 0x00, 0x00, 0x00, 0x00, 0x00, 0x00, 
  0xa2, 0x00, 0x00, 0x00, 0x80, 0x00, 0xe0, 0x00, 0x72, 0x00, 0x00, 0x00, 
  0x00, 0x00, 0x00, 0x00, 0xa2, 0x00, 0x00, 0x00, 0x80, 0x00, 0xdf, 0x00, 
  0x72, 0x00, 0x00, 0x00, 0x00, 0x00, 0x00, 0x00, 0xa1, 0x00, 0x00, 0x00, 
  0x7f, 0x00, 0xdf, 0x00, 0x72, 0x00, 0x00, 0x00, 0x00, 0x00, 0x00, 0x00, 
  0xa1, 0x00, 0x00, 0x00, 0x7f, 0x00, 0xdf, 0x00, 0x72, 0x00, 0x00, 0x00, 
  0x00, 0x00, 0x00, 0x00, 0xa1, 0x00, 0x00, 0x00, 0x7f, 0x00, 0xdf, 0x00, 
  0x71, 0x00, 0x00, 0x00, 0x00, 0x00, 0x00, 0x00, 0xa0, 0x00, 0x00, 0x00, 
  0x7f, 0x00, 0xdd, 0x00, 0x71, 0x00, 0x00, 0x00, 0x00, 0x00, 0x00, 0x00, 
  0xa0, 0x00, 0x00, 0x00, 0x7e, 0x00, 0xdd, 0x00, 0x71, 0x00, 0x00, 0x00, 
  0x00, 0x00, 0x00, 0x00, 0xa0, 0x00, 0x00, 0x00, 0x7e, 0x00, 0xdc, 0x00, 
  0x71, 0x00, 0x00, 0x00, 0x00, 0x00, 0x00, 0x00, 0x9f, 0x00, 0x00, 0x00, 
  0x7e, 0x00, 0xdc, 0x00, 0x71, 0x00, 0x00, 0x00, 0x00, 0x00, 0x00, 0x00, 
  0x9f, 0x00, 0x00, 0x00, 0x7d, 0x00, 0xdb, 0x00, 0x71, 0x00, 0x00, 0x00, 
  0x00, 0x00, 0x00, 0x00, 0x9e, 0x00, 0x00, 0x00, 0x7d, 0x00, 0xdb, 0x00, 
  0x70, 0x00, 0x00, 0x00, 0x00, 0x00, 0x00, 0x00, 0x9d, 0x00, 0x00, 0x00, 
  0x7c, 0x00, 0xd9, 0x00, 0x70, 0x00, 0x00, 0x00, 0x00, 0x00, 0x00, 0x00, 
  0x9c, 0x00, 0x00, 0x00, 0x7b, 0x00, 0xd8, 0x00, 0x70, 0x00, 0x00, 0x00, 
  0x00, 0x00, 0x00, 0x00, 0x9c, 0x00, 0x00, 0x00, 0x7b, 0x00, 0xd7, 0x00, 
  0x70, 0x00, 0x00, 0x00, 0x00, 0x00, 0x00, 0x00, 0x9c, 0x00, 0x00, 0x00, 
  0x7b, 0x00, 0xd7, 0x00, 0x70, 0x00, 0x00, 0x00, 0x00, 0x00, 0x00, 0x00, 
  0x9c, 0x00, 0x00, 0x00, 0x7b, 0x00, 0xd7, 0x00, 0x70, 0x00, 0x00, 0x00, 
  0x00, 0x00, 0x00, 0x00, 0x9b, 0x00, 0x00, 0x00, 0x7a, 0x00, 0xd7, 0x00, 
  0x70, 0x00, 0x00, 0x00, 0x00, 0x00, 0x00, 0x00, 0x9b, 0x00, 0x00, 0x00, 
  0x7a, 0x00, 0xd6, 0x00, 0x70, 0x00, 0x00, 0x00, 0x00, 0x00, 0x00, 0x00, 
  0x9a, 0x00, 0x00, 0x00, 0x79, 0x00, 0xd4, 0x00, 0x6f, 0x00, 0x00, 0x00, 
  0x00, 0x00, 0x00, 0x00, 0x99, 0x00, 0x00, 0x00, 0x79, 0x00, 0xd3, 0x00, 
  0x6f, 0x00, 0x00, 0x00, 0x00, 0x00, 0x00, 0x00, 0x98, 0x00, 0x00, 0x00, 
  0x78, 0x00, 0xd2, 0x00, 0x6f, 0x00, 0x00, 0x00, 0x00, 0x00, 0x00, 0x00, 
  0x97, 0x00, 0x00, 0x00, 0x77, 0x00, 0xd1, 0x00, 0x6e, 0x00, 0x00, 0x00, 
  0x00, 0x00, 0x00, 0x00, 0x95, 0x00, 0x00, 0x00, 0x75, 0x00, 0xce, 0x00, 
  0x6d, 0x00, 0x00, 0x00, 0x00, 0x00, 0x00, 0x00, 0x92, 0x00, 0x00, 0x00, 
  0x73, 0x00, 0xca, 0x00, 0x6c, 0x00, 0x00, 0x00, 0x00, 0x00, 0x00, 0x00, 
  0x8d, 0x00, 0x00, 0x00, 0x6e, 0x00, 0xc2, 0x00, 0x69, 0x00, 0x00, 0x00, 
  0x00, 0x00, 0x00, 0x00, 0x85, 0x00, 0x00, 0x00, 0x67, 0x00, 0xb7, 0x00, 
  0x66, 0x00, 0x00, 0x00, 0x00, 0x00, 0x00, 0x00, 0x7b, 0x00, 0x00, 0x00, 
  0x5e, 0x00, 0xa9, 0x00, 0x63, 0x00, 0x00, 0x00, 0x00, 0x00, 0x00, 0x00, 
  0x6f, 0x00, 0x00, 0x00, 0x54, 0x00, 0x97, 0x00, 0x5f, 0x00, 0x00, 0x00, 
  0x00, 0x00, 0x00, 0x00, 0x63, 0x00, 0x00, 0x00, 0x4a, 0x00, 0x87, 0x00, 
  0x5d, 0x00, 0x00, 0x00, 0x00, 0x00, 0x00, 0x00, 0x5a, 0x00, 0x00, 0x00, 
  0x43, 0x00, 0x7b, 0x00, 0x5c, 0x00, 0x00, 0x00, 0x00, 0x00, 0x00, 0x00, 
  0x57, 0x00, 0x00, 0x00, 0x3f, 0x00, 0x75, 0x00, 0x5b, 0x00, 0x00, 0x00, 
  0x00, 0x00, 0x00, 0x00, 0x53, 0x00, 0x00, 0x00, 0x3c, 0x00, 0x71, 0x00, 
  0x9e, 0xea, 0xfc, 0xff, 0x04, 0x00, 0x00, 0x00, 0xf0, 0x03, 0x00, 0x00, 
  0x00, 0x00, 0x00, 0x00, 0x00, 0x00, 0x00, 0x00, 0x00, 0x00, 0x00, 0x00, 
  0x00, 0x00, 0x00, 0x00, 0x00, 0x00, 0x00, 0x00, 0x00, 0x00, 0x00, 0x00, 
  0x00, 0x00, 0x00, 0x00, 0x00, 0x00, 0x00, 0x00, 0x00, 0x00, 0x00, 0x00, 
  0x00, 0x00, 0x00, 0x00, 0x00, 0x00, 0x00, 0x00, 0x00, 0x00, 0x00, 0x00, 
  0x00, 0x00, 0x00, 0x00, 0x00, 0x00, 0x00, 0x00, 0x00, 0x00, 0x00, 0x00, 
  0x00, 0x00, 0x00, 0x00, 0x00, 0x00, 0x00, 0x00, 0x00, 0x00, 0x00, 0x00, 
  0x00, 0x00, 0x00, 0x00, 0x00, 0x00, 0x00, 0x00, 0x00, 0x00, 0x00, 0x00, 
  0x00, 0x00, 0x00, 0x00, 0x00, 0x00, 0x00, 0x00, 0x00, 0x00, 0x00, 0x00, 
  0x00, 0x00, 0x00, 0x00, 0x00, 0x00, 0x00, 0x00, 0x00, 0x00, 0x00, 0x00, 
  0x00, 0x00, 0x00, 0x00, 0x00, 0x00, 0x00, 0x00, 0x00, 0x00, 0x00, 0x00, 
  0x00, 0x00, 0x00, 0x00, 0x00, 0x00, 0x00, 0x00, 0x00, 0x00, 0x00, 0x00, 
  0x00, 0x00, 0x00, 0x00, 0x00, 0x00, 0x00, 0x00, 0x00, 0x00, 0x00, 0x00, 
  0x00, 0x00, 0x00, 0x00, 0x00, 0x00, 0x00, 0x00, 0x00, 0x00, 0x00, 0x00, 
  0x00, 0x00, 0x00, 0x00, 0x00, 0x00, 0x00, 0x00, 0x00, 0x00, 0x00, 0x00, 
  0x00, 0x00, 0x00, 0x00, 0x00, 0x00, 0x00, 0x00, 0x00, 0x00, 0x00, 0x00, 
  0x00, 0x00, 0x00, 0x00, 0x00, 0x00, 0x00, 0x00, 0x00, 0x00, 0x00, 0x00, 
  0x00, 0x00, 0x00, 0x00, 0x00, 0x00, 0x00, 0x00, 0x00, 0x00, 0x00, 0x00, 
  0x00, 0x00, 0x00, 0x00, 0x00, 0x00, 0x00, 0x00, 0x00, 0x00, 0x00, 0x00, 
  0x00, 0x00, 0x00, 0x00, 0x00, 0x00, 0x00, 0x00, 0x00, 0x00, 0x00, 0x00, 
  0x00, 0x00, 0x00, 0x00, 0x00, 0x00, 0x00, 0x00, 0x00, 0x00, 0x00, 0x00, 
  0x00, 0x00, 0x00, 0x00, 0x00, 0x00, 0x00, 0x00, 0x00, 0x00, 0x00, 0x00, 
  0x00, 0x00, 0x00, 0x00, 0x00, 0x00, 0x00, 0x00, 0x00, 0x00, 0x00, 0x00, 
  0x00, 0x00, 0x00, 0x00, 0x00, 0x00, 0x00, 0x00, 0x00, 0x00, 0x00, 0x00, 
  0x00, 0x00, 0x00, 0x00, 0x00, 0x00, 0x00, 0x00, 0x00, 0x00, 0x00, 0x00, 
  0x00, 0x00, 0x00, 0x00, 0x00, 0x00, 0x00, 0x00, 0x00, 0x00, 0x00, 0x00, 
  0x00, 0x00, 0x00, 0x00, 0x00, 0x00, 0x00, 0x00, 0x00, 0x00, 0x00, 0x00, 
  0x00, 0x00, 0x00, 0x00, 0x00, 0x00, 0x00, 0x00, 0x00, 0x00, 0x00, 0x00, 
  0x00, 0x00, 0x00, 0x00, 0x00, 0x00, 0x00, 0x00, 0x00, 0x00, 0x00, 0x00, 
  0x00, 0x00, 0x00, 0x00, 0x00, 0x00, 0x00, 0x00, 0x00, 0x00, 0x00, 0x00, 
  0x00, 0x00, 0x00, 0x00, 0x00, 0x00, 0x00, 0x00, 0x00, 0x00, 0x00, 0x00, 
  0x00, 0x00, 0x00, 0x00, 0x00, 0x00, 0x00, 0x00, 0x00, 0x00, 0x00, 0x00, 
  0x00, 0x00, 0x00, 0x00, 0x00, 0x00, 0x00, 0x00, 0x00, 0x00, 0x00, 0x00, 
  0x00, 0x00, 0x00, 0x00, 0x00, 0x00, 0x00, 0x00, 0x00, 0x00, 0x00, 0x00, 
  0x00, 0x00, 0x00, 0x00, 0x00, 0x00, 0x00, 0x00, 0x00, 0x00, 0x00, 0x00, 
  0x00, 0x00, 0x00, 0x00, 0x00, 0x00, 0x00, 0x00, 0x00, 0x00, 0x00, 0x00, 
  0x00, 0x00, 0x00, 0x00, 0x00, 0x00, 0x00, 0x00, 0x00, 0x00, 0x00, 0x00, 
  0x00, 0x00, 0x00, 0x00, 0x00, 0x00, 0x00, 0x00, 0x00, 0x00, 0x00, 0x00, 
  0x00, 0x00, 0x00, 0x00, 0x00, 0x00, 0x00, 0x00, 0x00, 0x00, 0x00, 0x00, 
  0x00, 0x00, 0x00, 0x00, 0x00, 0x00, 0x00, 0x00, 0x00, 0x00, 0x00, 0x00, 
  0x00, 0x00, 0x00, 0x00, 0x00, 0x00, 0x00, 0x00, 0x00, 0x00, 0x00, 0x00, 
  0x00, 0x00, 0x00, 0x00, 0x00, 0x00, 0x00, 0x00, 0x00, 0x00, 0x00, 0x00, 
  0x00, 0x00, 0x00, 0x00, 0x00, 0x00, 0x00, 0x00, 0x00, 0x00, 0x00, 0x00, 
  0x4a, 0x00, 0x00, 0x00, 0x00, 0x00, 0x09, 0x00, 0x08, 0x00, 0x0b, 0x00, 
  0x0c, 0x00, 0x01, 0x00, 0x49, 0x00, 0x00, 0x00, 0x00, 0x00, 0x09, 0x00, 
  0x08, 0x00, 0x0b, 0x00, 0x0d, 0x00, 0x02, 0x00, 0x48, 0x00, 0x00, 0x00, 
  0x00, 0x00, 0x0a, 0x00, 0x09, 0x00, 0x0b, 0x00, 0x0e, 0x00, 0x02, 0x00, 
  0x46, 0x00, 0x00, 0x00, 0x00, 0x00, 0x0a, 0x00, 0x09, 0x00, 0x0c, 0x00, 
  0x0e, 0x00, 0x02, 0x00, 0x45, 0x00, 0x00, 0x00, 0x00, 0x00, 0x0b, 0x00, 
  0x09, 0x00, 0x0c, 0x00, 0x0f, 0x00, 0x02, 0x00, 0x44, 0x00, 0x00, 0x00, 
  0x00, 0x00, 0x0b, 0x00, 0x09, 0x00, 0x0c, 0x00, 0x0f, 0x00, 0x03, 0x00, 
  0x44, 0x00, 0x00, 0x00, 0x00, 0x00, 0x0b, 0x00, 0x0a, 0x00, 0x0c, 0x00, 
  0x10, 0x00, 0x03, 0x00, 0x42, 0x00, 0x00, 0x00, 0x00, 0x00, 0x0c, 0x00, 
  0x0a, 0x00, 0x0d, 0x00, 0x10, 0x00, 0x03, 0x00, 0x42, 0x00, 0x00, 0x00, 
  0x00, 0x00, 0x0c, 0x00, 0x0a, 0x00, 0x0d, 0x00, 0x11, 0x00, 0x03, 0x00, 
  0x41, 0x00, 0x00, 0x00, 0x00, 0x00, 0x0c, 0x00, 0x0a, 0x00, 0x0d, 0x00, 
  0x11, 0x00, 0x03, 0x00, 0x40, 0x00, 0x00, 0x00, 0x00, 0x00, 0x0c, 0x00, 
  0x0b, 0x00, 0x0d, 0x00, 0x12, 0x00, 0x04, 0x00, 0x40, 0x00, 0x00, 0x00, 
  0x00, 0x00, 0x0d, 0x00, 0x0b, 0x00, 0x0d, 0x00, 0x12, 0x00, 0x04, 0x00, 
  0x3f, 0x00, 0x00, 0x00, 0x00, 0x00, 0x0d, 0x00, 0x0b, 0x00, 0x0d, 0x00, 
  0x12, 0x00, 0x04, 0x00, 0x3f, 0x00, 0x00, 0x00, 0x00, 0x00, 0x0d, 0x00, 
  0x0b, 0x00, 0x0e, 0x00, 0x13, 0x00, 0x04, 0x00, 0x3e, 0x00, 0x00, 0x00, 
  0x00, 0x00, 0x0d, 0x00, 0x0b, 0x00, 0x0e, 0x00, 0x13, 0x00, 0x04, 0x00, 
  0x3e, 0x00, 0x00, 0x00, 0x00, 0x00, 0x0d, 0x00, 0x0b, 0x00, 0x0e, 0x00, 
  0x13, 0x00, 0x04, 0x00, 0x3d, 0x00, 0x00, 0x00, 0x00, 0x00, 0x0d, 0x00, 
  0x0b, 0x00, 0x0e, 0x00, 0x13, 0x00, 0x04, 0x00, 0x3d, 0x00, 0x00, 0x00, 
  0x00, 0x00, 0x0d, 0x00, 0x0b, 0x00, 0x0e, 0x00, 0x13, 0x00, 0x04, 0x00, 
  0x3d, 0x00, 0x00, 0x00, 0x00, 0x00, 0x0e, 0x00, 0x0b, 0x00, 0x0e, 0x00, 
  0x14, 0x00, 0x04, 0x00, 0x3d, 0x00, 0x00, 0x00, 0x00, 0x00, 0x0e, 0x00, 
  0x0c, 0x00, 0x0e, 0x00, 0x14, 0x00, 0x04, 0x00, 0x3c, 0x00, 0x00, 0x00, 
  0x00, 0x00, 0x0e, 0x00, 0x0c, 0x00, 0x0e, 0x00, 0x14, 0x00, 0x05, 0x00, 
  0x3c, 0x00, 0x00, 0x00, 0x00, 0x00, 0x0e, 0x00, 0x0c, 0x00, 0x0e, 0x00, 
  0x14, 0x00, 0x05, 0x00, 0x3c, 0x00, 0x00, 0x00, 0x00, 0x00, 0x0e, 0x00, 
  0x0c, 0x00, 0x0e, 0x00, 0x14, 0x00, 0x05, 0x00, 0x3b, 0x00, 0x00, 0x00, 
  0x00, 0x00, 0x0e, 0x00, 0x0c, 0x00, 0x0e, 0x00, 0x14, 0x00, 0x05, 0x00, 
  0x3b, 0x00, 0x00, 0x00, 0x00, 0x00, 0x0e, 0x00, 0x0c, 0x00, 0x0e, 0x00, 
  0x15, 0x00, 0x05, 0x00, 0x3b, 0x00, 0x00, 0x00, 0x00, 0x00, 0x0e, 0x00, 
  0x0c, 0x00, 0x0f, 0x00, 0x15, 0x00, 0x05, 0x00, 0x3a, 0x00, 0x00, 0x00, 
  0x00, 0x00, 0x0e, 0x00, 0x0c, 0x00, 0x0f, 0x00, 0x15, 0x00, 0x05, 0x00, 
  0x3a, 0x00, 0x00, 0x00, 0x00, 0x00, 0x0f, 0x00, 0x0d, 0x00, 0x0f, 0x00, 
  0x17, 0x00, 0x06, 0x00, 0x38, 0x00, 0x00, 0x00, 0x00, 0x00, 0x0f, 0x00, 
  0x0e, 0x00, 0x11, 0x00, 0x19, 0x00, 0x07, 0x00, 0x34, 0x00, 0x00, 0x00, 
  0x00, 0x00, 0x11, 0x00, 0x10, 0x00, 0x13, 0x00, 0x1e, 0x00, 0x09, 0x00, 
  0x2d, 0x00, 0x00, 0x00, 0x00, 0x00, 0x14, 0x00, 0x12, 0x00, 0x14, 0x00, 
  0x21, 0x00, 0x0a, 0x00, 0x27, 0x00, 0x00, 0x00, 0x00, 0x00, 0x15, 0x00, 
  0x9a, 0xee, 0xfc, 0xff, 0x04, 0x00, 0x00, 0x00, 0xf0, 0x01, 0x00, 0x00, 
  0x00, 0x00, 0x00, 0x00, 0x00, 0x00, 0x00, 0x00, 0x00, 0x00, 0x00, 0x00, 
  0x00, 0x00, 0x00, 0x00, 0x00, 0x00, 0x00, 0x00, 0x00, 0x00, 0x00, 0x00, 
  0x00, 0x00, 0x00, 0x00, 0x00, 0x00, 0x00, 0x00, 0x00, 0x00, 0x00, 0x00, 
  0x00, 0x00, 0x00, 0x00, 0x00, 0x00, 0x00, 0x00, 0x00, 0x00, 0x00, 0x00, 
  0x00, 0x00, 0x00, 0x00, 0x00, 0x00, 0x00, 0x00, 0x00, 0x00, 0x00, 0x00, 
  0x00, 0x00, 0x00, 0x00, 0x00, 0x00, 0x00, 0x00, 0x00, 0x00, 0x00, 0x00, 
  0x00, 0x00, 0x00, 0x00, 0x00, 0x00, 0x00, 0x00, 0x00, 0x00, 0x00, 0x00, 
  0x00, 0x00, 0x00, 0x00, 0x00, 0x00, 0x00, 0x00, 0x00, 0x00, 0x00, 0x00, 
  0x00, 0x00, 0x00, 0x00, 0x00, 0x00, 0x00, 0x00, 0x00, 0x00, 0x00, 0x00, 
  0x00, 0x00, 0x00, 0x00, 0x00, 0x00, 0x00, 0x00, 0x00, 0x00, 0x00, 0x00, 
  0x00, 0x00, 0x00, 0x00, 0x00, 0x00, 0x00, 0x00, 0x00, 0x00, 0x00, 0x00, 
  0x00, 0x00, 0x00, 0x00, 0x00, 0x00, 0x00, 0x00, 0x00, 0x00, 0x00, 0x00, 
  0x00, 0x00, 0x00, 0x00, 0x00, 0x00, 0x00, 0x00, 0x00, 0x00, 0x00, 0x00, 
  0x00, 0x00, 0x00, 0x00, 0x00, 0x00, 0x00, 0x00, 0x00, 0x00, 0x00, 0x00, 
  0x00, 0x00, 0x00, 0x00, 0x00, 0x00, 0x00, 0x00, 0x00, 0x00, 0x00, 0x00, 
  0x00, 0x00, 0x00, 0x00, 0x00, 0x00, 0x00, 0x00, 0x00, 0x00, 0x00, 0x00, 
  0x00, 0x00, 0x00, 0x00, 0x00, 0x00, 0x00, 0x00, 0x00, 0x00, 0x00, 0x00, 
  0x00, 0x00, 0x00, 0x00, 0x00, 0x00, 0x00, 0x00, 0x00, 0x00, 0x00, 0x00, 
  0x00, 0x00, 0x00, 0x00, 0x00, 0x00, 0x00, 0x00, 0x00, 0x00, 0x00, 0x00, 
  0x00, 0x00, 0x00, 0x00, 0x00, 0x00, 0x00, 0x00, 0x00, 0x00, 0x00, 0x00, 
  0x00, 0x00, 0x00, 0x00, 0x00, 0x00, 0x00, 0x00, 0x03, 0x00, 0x04, 0x00, 
  0x0f, 0x00, 0x0a, 0x00, 0x24, 0x00, 0x0c, 0x00, 0x2f, 0x00, 0x1d, 0x00, 
  0x03, 0x00, 0x04, 0x00, 0x10, 0x00, 0x0a, 0x00, 0x24, 0x00, 0x0e, 0x00, 
  0x2e, 0x00, 0x1c, 0x00, 0x03, 0x00, 0x04, 0x00, 0x10, 0x00, 0x09, 0x00, 
  0x23, 0x00, 0x10, 0x00, 0x2d, 0x00, 0x1c, 0x00, 0x03, 0x00, 0x04, 0x00, 
  0x11, 0x00, 0x09, 0x00, 0x23, 0x00, 0x12, 0x00, 0x2c, 0x00, 0x1b, 0x00, 
  0x03, 0x00, 0x04, 0x00, 0x12, 0x00, 0x09, 0x00, 0x22, 0x00, 0x13, 0x00, 
  0x2b, 0x00, 0x1b, 0x00, 0x03, 0x00, 0x04, 0x00, 0x12, 0x00, 0x08, 0x00, 
  0x22, 0x00, 0x14, 0x00, 0x2b, 0x00, 0x1b, 0x00, 0x03, 0x00, 0x04, 0x00, 
  0x12, 0x00, 0x08, 0x00, 0x22, 0x00, 0x15, 0x00, 0x2a, 0x00, 0x1b, 0x00, 
  0x04, 0x00, 0x04, 0x00, 0x13, 0x00, 0x08, 0x00, 0x22, 0x00, 0x16, 0x00, 
  0x2a, 0x00, 0x1b, 0x00, 0x04, 0x00, 0x04, 0x00, 0x13, 0x00, 0x08, 0x00, 
  0x21, 0x00, 0x17, 0x00, 0x29, 0x00, 0x1a, 0x00, 0x04, 0x00, 0x04, 0x00, 
  0x13, 0x00, 0x08, 0x00, 0x21, 0x00, 0x17, 0x00, 0x29, 0x00, 0x1a, 0x00, 
  0x04, 0x00, 0x04, 0x00, 0x13, 0x00, 0x08, 0x00, 0x21, 0x00, 0x18, 0x00, 
  0x29, 0x00, 0x1a, 0x00, 0x04, 0x00, 0x04, 0x00, 0x14, 0x00, 0x08, 0x00, 
  0x21, 0x00, 0x19, 0x00, 0x28, 0x00, 0x1a, 0x00, 0x04, 0x00, 0x04, 0x00, 
  0x14, 0x00, 0x08, 0x00, 0x21, 0x00, 0x19, 0x00, 0x28, 0x00, 0x1a, 0x00, 
  0x04, 0x00, 0x04, 0x00, 0x14, 0x00, 0x07, 0x00, 0x1f, 0x00, 0x1d, 0x00, 
  0x25, 0x00, 0x19, 0x00, 0x04, 0x00, 0x03, 0x00, 0x15, 0x00, 0x07, 0x00, 
  0x1c, 0x00, 0x29, 0x00, 0x1e, 0x00, 0x16, 0x00, 0x04, 0x00, 0x03, 0x00, 
  0x18, 0x00, 0x04, 0x00, 0x96, 0xf0, 0xfc, 0xff, 0x04, 0x00, 0x00, 0x00, 
  0xf0, 0x00, 0x00, 0x00, 0x9f, 0x00, 0x00, 0x00, 0xc7, 0x00, 0x00, 0x00, 
  0x09, 0x00, 0x00, 0x00, 0x19, 0x00, 0x0c, 0x00, 0x96, 0x00, 0x00, 0x00, 
  0xb8, 0x00, 0x05, 0x00, 0x0a, 0x00, 0x00, 0x00, 0x21, 0x00, 0x0d, 0x00, 
  0x91, 0x00, 0x00, 0x00, 0xb4, 0x00, 0x04, 0x00, 0x09, 0x00, 0x00, 0x00, 
  0x20, 0x00, 0x0e, 0x00, 0x8b, 0x00, 0x00, 0x00, 0xac, 0x00, 0x04, 0x00, 
  0x08, 0x00, 0x00, 0x00, 0x21, 0x00, 0x0f, 0x00, 0x87, 0x00, 0x00, 0x00, 
  0xa7, 0x00, 0x04, 0x00, 0x07, 0x00, 0x00, 0x00, 0x22, 0x00, 0x0f, 0x00, 
  0x82, 0x00, 0x00, 0x00, 0xa1, 0x00, 0x05, 0x00, 0x05, 0x00, 0x00, 0x00, 
  0x22, 0x00, 0x10, 0x00, 0x7d, 0x00, 0x00, 0x00, 0x9a, 0x00, 0x05, 0x00, 
  0x05, 0x00, 0x00, 0x00, 0x23, 0x00, 0x10, 0x00, 0x77, 0x00, 0x00, 0x00, 
  0x92, 0x00, 0x06, 0x00, 0x04, 0x00, 0x00, 0x00, 0x23, 0x00, 0x11, 0x00, 
  0x72, 0x00, 0x00, 0x00, 0x8a, 0x00, 0x07, 0x00, 0x03, 0x00, 0x00, 0x00, 
  0x25, 0x00, 0x12, 0x00, 0x6d, 0x00, 0x00, 0x00, 0x83, 0x00, 0x08, 0x00, 
  0x04, 0x00, 0x00, 0x00, 0x26, 0x00, 0x12, 0x00, 0x6a, 0x00, 0x00, 0x00, 
  0x7f, 0x00, 0x08, 0x00, 0x04, 0x00, 0x00, 0x00, 0x27, 0x00, 0x13, 0x00, 
  0x68, 0x00, 0x00, 0x00, 0x7c, 0x00, 0x09, 0x00, 0x04, 0x00, 0x00, 0x00, 
  0x28, 0x00, 0x14, 0x00, 0x67, 0x00, 0x00, 0x00, 0x7a, 0x00, 0x09, 0x00, 
  0x04, 0x00, 0x00, 0x00, 0x28, 0x00, 0x14, 0x00, 0x64, 0x00, 0x00, 0x00, 
  0x77, 0x00, 0x09, 0x00, 0x04, 0x00, 0x00, 0x00, 0x28, 0x00, 0x14, 0x00, 
  0x4f, 0x00, 0x00, 0x00, 0x5d, 0x00, 0x0c, 0x00, 0x00, 0x00, 0x01, 0x00, 
  0x25, 0x00, 0x12, 0x00, 0x92, 0xf1, 0xfc, 0xff, 0x04, 0x00, 0x00, 0x00, 
  0xf0, 0x00, 0x00, 0x00, 0xfc, 0x22, 0xc9, 0xc0, 0x22, 0xec, 0xb5, 0x5c, 
  0xac, 0x31, 0x36, 0x19, 0x86, 0xc9, 0x9f, 0x68, 0x6d, 0x19, 0xa4, 0x09, 
  0x5c, 0xf7, 0x8f, 0x07, 0xcd, 0xf5, 0x3e, 0xbe, 0x1a, 0x2a, 0x8b, 0x73, 
  0xdb, 0xd2, 0xd0, 0xbf, 0x0f, 0x6f, 0x4a, 0xa5, 0xca, 0x13, 0x3b, 0xb8, 
  0xa5, 0xb5, 0xd5, 0x9d, 0x1d, 0x50, 0xb2, 0x60, 0xdd, 0xa4, 0x53, 0xe4, 
  0xc4, 0x12, 0xd0, 0x97, 0x0e, 0xc0, 0x1a, 0xb0, 0x73, 0x1c, 0x1f, 0x08, 
  0x93, 0x34, 0x11, 0x0c, 0xea, 0xfc, 0x6f, 0x9b, 0x3f, 0x30, 0x9c, 0x95, 
  0x66, 0xad, 0x6f, 0x7d, 0x3f, 0x27, 0xfa, 0xcb, 0x5a, 0x26, 0xa5, 0x18, 
  0xa8, 0x04, 0x2e, 0x14, 0x67, 0x61, 0x69, 0xe7, 0x60, 0xb2, 0xd7, 0x0e, 
  0x7e, 0x1b, 0x54, 0x42, 0xd4, 0x4d, 0x19, 0x85, 0x26, 0x90, 0x53, 0xa3, 
  0x77, 0x68, 0xaf, 0xe6, 0x8a, 0xeb, 0xad, 0xd0, 0xfe, 0x63, 0x9c, 0xe8, 
  0x90, 0xa7, 0x0d, 0x47, 0xdd, 0xd9, 0xbd, 0xb0, 0xa6, 0x3b, 0xfd, 0xc8, 
  0x5e, 0xe9, 0xf0, 0x22, 0xdc, 0xcc, 0x08, 0x6c, 0x27, 0x3a, 0x5b, 0x46, 
  0xda, 0x8e, 0xff, 0x99, 0x04, 0x52, 0x3c, 0x7c, 0x7d, 0x99, 0xfe, 0x84, 
  0xdb, 0x4d, 0x77, 0xe2, 0xf4, 0x4b, 0x34, 0x95, 0xb6, 0x1d, 0x10, 0x6f, 
  0x03, 0x4c, 0x4f, 0xa0, 0x98, 0x9b, 0x03, 0x21, 0xb3, 0x11, 0x44, 0x6b, 
  0xb0, 0xa3, 0xa9, 0x5b, 0x81, 0x82, 0x71, 0x35, 0xaa, 0xcf, 0x10, 0x5a, 
  0xd7, 0x30, 0x2a, 0xf8, 0xc7, 0xbe, 0x7b, 0x4e, 0x13, 0xf5, 0xcb, 0x68, 
  0x9a, 0xee, 0x70, 0x91, 0x9e, 0x5b, 0x38, 0x9e, 0x83, 0xdd, 0x3d, 0x41, 
  0x26, 0x7d, 0x83, 0xd1, 0xa4, 0x22, 0x80, 0x67, 0xab, 0xe4, 0x17, 0xfd, 
  0x34, 0x5d, 0x71, 0x3a, 0x8e, 0xf2, 0xfc, 0xff, 0x04, 0x00, 0x00, 0x00, 
  0xf0, 0x01, 0x00, 0x00, 0x00, 0x00, 0x82, 0x06, 0x43, 0x07, 0x26, 0x00, 
  0x34, 0x03, 0x33, 0x04, 0xcd, 0x03, 0x25, 0x01, 0x00, 0x00, 0x85, 0x08, 
  0x3c, 0x09, 0x00, 0x00, 0x80, 0x02, 0x5f, 0x05, 0xc2, 0x06, 0x28, 0x00, 
  0x00, 0x00, 0xb3, 0x07, 0xb2, 0x06, 0xd6, 0x00, 0x65, 0x05, 0x51, 0x03, 
  0x27, 0x06, 0x30, 0x02, 0x44, 0x00, 0x56, 0x06, 0xa4, 0x05, 0x61, 0x00, 
  0x0d, 0x06, 0xe4, 0x02, 0x6b, 0x04, 0x10, 0x03, 0x48, 0x04, 0x2b, 0x05, 
  0xb7, 0x05, 0x00, 0x00, 0x01, 0x05, 0xa7, 0x03, 0x57, 0x03, 0x3e, 0x02, 
  0xfd, 0x02, 0xf9, 0x00, 0x02, 0x02, 0x27, 0x01, 0x32, 0x06, 0x10, 0x01, 
  0x00, 0x00, 0x92, 0x02, 0x00, 0x00, 0x6b, 0x08, 0xe9, 0x03, 0x90, 0x01, 
  0xfa, 0x09, 0x91, 0x00, 0x9c, 0x06, 0x9f, 0x07, 0x00, 0x00, 0xe6, 0x0e, 
  0x35, 0x06, 0x48, 0x00, 0x84, 0x0b, 0xb9, 0x01, 0xe6, 0x0d, 0x14, 0x0a, 
  0x00, 0x00, 0x46, 0x06, 0x4e, 0x05, 0xc2, 0x00, 0xa9, 0x06, 0xd2, 0x01, 
  0x1e, 0x04, 0xf1, 0x02, 0x00, 0x00, 0xca, 0x03, 0xad, 0x07, 0x00, 0x00, 
  0x94, 0x02, 0xbe, 0x03, 0x45, 0x01, 0x00, 0x00, 0x67, 0x01, 0xa1, 0x06, 
  0x5a, 0x06, 0x00, 0x00, 0x1b, 0x04, 0x76, 0x04, 0xfb, 0x02, 0xff, 0x00, 
  0xf0, 0x01, 0x84, 0x04, 0x17, 0x03, 0xc2, 0x00, 0x59, 0x06, 0x9e, 0x02, 
  0x57, 0x00, 0x78, 0x03, 0x26, 0x01, 0x5e, 0x05, 0xf8, 0x03, 0xba, 0x01, 
  0x5d, 0x07, 0x8d, 0x02, 0x97, 0x01, 0x54, 0x05, 0x00, 0x00, 0xfb, 0x0a, 
  0x59, 0x07, 0x40, 0x00, 0x60, 0x06, 0xd3, 0x04, 0xb9, 0x07, 0xfa, 0x04, 
  0x7a, 0x03, 0xed, 0x06, 0x23, 0x08, 0x00, 0x00, 0x27, 0x01, 0x09, 0x06, 
  0x3b, 0x03, 0x00, 0x00, 0xfc, 0x06, 0x32, 0x01, 0x20, 0x07, 0x00, 0x00, 
  0x00, 0x00, 0x61, 0x05, 0x00, 0x00, 0x00, 0x00, 0xfc, 0x03, 0xcb, 0x08, 
  0x1e, 0x08, 0x00, 0x00, 0x23, 0x04, 0x57, 0x05, 0x2f, 0x06, 0x2c, 0x02, 
  0x6f, 0x00, 0x87, 0x0b, 0xaf, 0x05, 0x00, 0x00, 0x5f, 0x08, 0x41, 0x03, 
  0x17, 0x09, 0xf2, 0x06, 0x00, 0x00, 0xf0, 0x08, 0x29, 0x08, 0x00, 0x00, 
  0xbd, 0x04, 0xa8, 0x03, 0xa0, 0x06, 0x22, 0x01, 0xa7, 0x00, 0x4e, 0x06, 
  0x9f, 0x0b, 0x00, 0x00, 0x60, 0x00, 0x43, 0x06, 0xa0, 0x04, 0x00, 0x00, 
  0xe3, 0x02, 0xff, 0x05, 0xc7, 0x08, 0x00, 0x00, 0x10, 0x03, 0x67, 0x05, 
  0x71, 0x04, 0xe0, 0x00, 0x5f, 0x03, 0x60, 0x07, 0xd9, 0x07, 0x00, 0x00, 
  0xd7, 0x03, 0x6b, 0x04, 0xdf, 0x05, 0x46, 0x01, 0xb9, 0x02, 0xf2, 0x09, 
  0x54, 0x08, 0x00, 0x00, 0x86, 0x04, 0xf7, 0x04, 0xa9, 0x07, 0xd4, 0x02, 
  0x00, 0x00, 0x48, 0x0c, 0x5a, 0x06, 0x34, 0x01, 0xb9, 0x07, 0xe2, 0x03, 
  0x52, 0x0a, 0x4a, 0x07, 0x00, 0x00, 0xd7, 0x02, 0xfa, 0x02, 0xe9, 0x02, 
  0xa7, 0x04, 0xe4, 0x01, 0xae, 0x00, 0x8e, 0x01, 0x00, 0x00, 0xaa, 0x03, 
  0xf3, 0x05, 0xac, 0x01, 0x9e, 0x02, 0x56, 0x03, 0x69, 0x01, 0x00, 0x00, 
  0x00, 0x00, 0x19, 0x06, 0x3e, 0x04, 0x66, 0x01, 0xd2, 0x07, 0x10, 0x01, 
  0xe9, 0x03, 0x21, 0x05, 0x00, 0x00, 0x73, 0x03, 0x17, 0x00, 0x14, 0x02, 
  0x5a, 0x0a, 0x00, 0x00, 0x41, 0x00, 0x72, 0x07, 0x00, 0x00, 0x8d, 0x08, 
  0x52, 0x07, 0x4b, 0x00, 0xa8, 0x05, 0x0b, 0x03, 0x01, 0x06, 0xac, 0x02, 
  0x19, 0x01, 0xaa, 0x06, 0xea, 0x09, 0x00, 0x00, 0x82, 0x00, 0xb6, 0x05, 
  0x8a, 0x04, 0x00, 0x00, 0xec, 0x01, 0x50, 0x06, 0x0d, 0x06, 0x00, 0x00, 
  0x8d, 0x03, 0xf0, 0x03, 0x76, 0x03, 0xd1, 0x01, 0x8a, 0xf4, 0xfc, 0xff, 
  0x04, 0x00, 0x00, 0x00, 0xf0, 0x03, 0x00, 0x00, 0x00, 0x00, 0x2e, 0x00, 
  0x33, 0x00, 0x27, 0x00, 0x29, 0x00, 0xc5, 0x00, 0x36, 0x00, 0x0d, 0x00, 
  0x00, 0x00, 0x00, 0x00, 0x1c, 0x00, 0x16, 0x00, 0xa7, 0x00, 0xc3, 0x00, 
  0x27, 0x00, 0x1e, 0x00, 0x00, 0x00, 0x46, 0x00, 0x20, 0x00, 0x1c, 0x00, 
  0x42, 0x00, 0xde, 0x00, 0x27, 0x00, 0x1b, 0x00, 0x00, 0x00, 0x50, 0x00, 
  0x10, 0x00, 0x11, 0x00, 0x39, 0x00, 0xed, 0x00, 0x15, 0x00, 0x1e, 0x00, 
  0x00, 0x00, 0x45, 0x00, 0x29, 0x00, 0x24, 0x00, 0x4e, 0x00, 0xca, 0x00, 
  0x31, 0x00, 0x16, 0x00, 0x00, 0x00, 0x42, 0x00, 0x3f, 0x00, 0x34, 0x00, 
  0x53, 0x00, 0xbb, 0x00, 0x49, 0x00, 0x12, 0x00, 0x11, 0x00, 0x27, 0x00, 
  0x54, 0x00, 0x44, 0x00, 0x6f, 0x00, 0xa4, 0x00, 0x61, 0x00, 0x0f, 0x00, 
  0x19, 0x00, 0x24, 0x00, 0x5b, 0x00, 0x49, 0x00, 0x6d, 0x00, 0x9f, 0x00, 
  0x69, 0x00, 0x0d, 0x00, 0x13, 0x00, 0x1f, 0x00, 0x55, 0x00, 0x47, 0x00, 
  0x71, 0x00, 0x9e, 0x00, 0x63, 0x00, 0x0a, 0x00, 0x0c, 0x00, 0x24, 0x00, 
  0x4e, 0x00, 0x42, 0x00, 0x6f, 0x00, 0xa2, 0x00, 0x5b, 0x00, 0x07, 0x00, 
  0x21, 0x00, 0x04, 0x00, 0x65, 0x00, 0x54, 0x00, 0x94, 0x00, 0x84, 0x00, 
  0x77, 0x00, 0x00, 0x00, 0x3c, 0x00, 0x00, 0x00, 0x81, 0x00, 0x68, 0x00, 
  0xae, 0x00, 0x68, 0x00, 0x97, 0x00, 0x00, 0x00, 0x27, 0x00, 0x0b, 0x00, 
  0x67, 0x00, 0x4f, 0x00, 0x9a, 0x00, 0x8e, 0x00, 0x78, 0x00, 0x10, 0x00, 
  0x2c, 0x00, 0x15, 0x00, 0x6b, 0x00, 0x51, 0x00, 0x94, 0x00, 0x95, 0x00, 
  0x7a, 0x00, 0x18, 0x00, 0x31, 0x00, 0x1c, 0x00, 0x6f, 0x00, 0x54, 0x00, 
  0x87, 0x00, 0x99, 0x00, 0x7e, 0x00, 0x20, 0x00, 0x20, 0x00, 0x33, 0x00, 
  0x5b, 0x00, 0x45, 0x00, 0x6f, 0x00, 0xb2, 0x00, 0x67, 0x00, 0x28, 0x00, 
  0x56, 0x00, 0x00, 0x00, 0x98, 0x00, 0x7a, 0x00, 0x95, 0x00, 0x67, 0x00, 
  0xad, 0x00, 0x06, 0x00, 0x56, 0x00, 0x00, 0x00, 0x99, 0x00, 0x7c, 0x00, 
  0x96, 0x00, 0x5d, 0x00, 0xaf, 0x00, 0x00, 0x00, 0x1e, 0x00, 0x20, 0x00, 
  0x5d, 0x00, 0x4d, 0x00, 0x6d, 0x00, 0x8f, 0x00, 0x6a, 0x00, 0x06, 0x00, 
  0x0d, 0x00, 0x2f, 0x00, 0x4b, 0x00, 0x42, 0x00, 0x59, 0x00, 0x9d, 0x00, 
  0x56, 0x00, 0x04, 0x00, 0x00, 0x00, 0x46, 0x00, 0x2c, 0x00, 0x28, 0x00, 
  0x47, 0x00, 0xbb, 0x00, 0x33, 0x00, 0x0d, 0x00, 0x00, 0x00, 0x4a, 0x00, 
  0x2c, 0x00, 0x27, 0x00, 0x47, 0x00, 0xbe, 0x00, 0x33, 0x00, 0x0e, 0x00, 
  0x16, 0x00, 0x25, 0x00, 0x54, 0x00, 0x47, 0x00, 0x6e, 0x00, 0x93, 0x00, 
  0x61, 0x00, 0x01, 0x00, 0x2f, 0x00, 0x10, 0x00, 0x6f, 0x00, 0x5a, 0x00, 
  0x86, 0x00, 0x7b, 0x00, 0x80, 0x00, 0x00, 0x00, 0x34, 0x00, 0x11, 0x00, 
  0x74, 0x00, 0x5d, 0x00, 0x8e, 0x00, 0x7c, 0x00, 0x85, 0x00, 0x01, 0x00, 
  0x3c, 0x00, 0x12, 0x00, 0x7b, 0x00, 0x61, 0x00, 0x92, 0x00, 0x79, 0x00, 
  0x8c, 0x00, 0x01, 0x00, 0x1b, 0x00, 0x37, 0x00, 0x57, 0x00, 0x46, 0x00, 
  0x6e, 0x00, 0xa2, 0x00, 0x63, 0x00, 0x0f, 0x00, 0x00, 0x00, 0x55, 0x00, 
  0x37, 0x00, 0x2f, 0x00, 0x4b, 0x00, 0xc3, 0x00, 0x3e, 0x00, 0x17, 0x00, 
  0x0a, 0x00, 0x45, 0x00, 0x45, 0x00, 0x3e, 0x00, 0x4e, 0x00, 0xa9, 0x00, 
  0x4f, 0x00, 0x03, 0x00, 0x00, 0x00, 0x4e, 0x00, 0x35, 0x00, 0x33, 0x00, 
  0x44, 0x00, 0xb2, 0x00, 0x3c, 0x00, 0x00, 0x00, 0x00, 0x00, 0x4c, 0x00, 
  0x20, 0x00, 0x26, 0x00, 0x4b, 0x00, 0xb6, 0x00, 0x27, 0x00, 0x00, 0x00, 
  0x00, 0x00, 0x42, 0x00, 0x28, 0x00, 0x2d, 0x00, 0x56, 0x00, 0xab, 0x00, 
  0x30, 0x00, 0x00, 0x00, 0x00, 0x00, 0x69, 0x00, 0x00, 0x00, 0x06, 0x00, 
  0x40, 0x00, 0xe0, 0x00, 0x00, 0x00, 0x01, 0x00, 0x00, 0x00, 0x75, 0x00, 
  0x00, 0x00, 0x01, 0x00, 0x36, 0x00, 0xec, 0x00, 0x00, 0x00, 0x0a, 0x00, 
  0x00, 0x00, 0x56, 0x00, 0x25, 0x00, 0x25, 0x00, 0x4b, 0x00, 0xc3, 0x00, 
  0x2b, 0x00, 0x0b, 0x00, 0x07, 0x00, 0x4a, 0x00, 0x3b, 0x00, 0x33, 0x00, 
  0x57, 0x00, 0xb4, 0x00, 0x43, 0x00, 0x10, 0x00, 0x20, 0x00, 0x3a, 0x00, 
  0x56, 0x00, 0x4a, 0x00, 0x59, 0x00, 0x98, 0x00, 0x61, 0x00, 0x09, 0x00, 
  0x10, 0x00, 0x48, 0x00, 0x44, 0x00, 0x3d, 0x00, 0x4a, 0x00, 0xa4, 0x00, 
  0x4c, 0x00, 0x08, 0x00, 0x00, 0x00, 0x63, 0x00, 0x21, 0x00, 0x25, 0x00, 
  0x2d, 0x00, 0xbf, 0x00, 0x24, 0x00, 0x06, 0x00, 0x00, 0x00, 0x74, 0x00, 
  0x12, 0x00, 0x1b, 0x00, 0x1b, 0x00, 0xcc, 0x00, 0x13, 0x00, 0x02, 0x00, 
  0x00, 0x00, 0x74, 0x00, 0x0b, 0x00, 0x15, 0x00, 0x20, 0x00, 0xd0, 0x00, 
  0x0b, 0x00, 0x03, 0x00, 0x00, 0x00, 0x69, 0x00, 0x16, 0x00, 0x1c, 0x00, 
  0x2d, 0x00, 0xc5, 0x00, 0x18, 0x00, 0x01, 0x00, 0x00, 0x00, 0x64, 0x00, 
  0x15, 0x00, 0x1c, 0x00, 0x38, 0x00, 0xc7, 0x00, 0x18, 0x00, 0x02, 0x00, 
  0x00, 0x00, 0x62, 0x00, 0x17, 0x00, 0x1c, 0x00, 0x3c, 0x00, 0xc5, 0x00, 
  0x1a, 0x00, 0x04, 0x00, 0x00, 0x00, 0x67, 0x00, 0x14, 0x00, 0x1a, 0x00, 
  0x3a, 0x00, 0xca, 0x00, 0x16, 0x00, 0x06, 0x00, 0x00, 0x00, 0x6c, 0x00, 
  0x13, 0x00, 0x18, 0x00, 0x35, 0x00, 0xcf, 0x00, 0x15, 0x00, 0x08, 0x00, 
  0x00, 0x00, 0x60, 0x00, 0x2a, 0x00, 0x28, 0x00, 0x45, 0x00, 0xbf, 0x00, 
  0x2e, 0x00, 0x0b, 0x00, 0x0f, 0x00, 0x55, 0x00, 0x40, 0x00, 0x37, 0x00, 
  0x55, 0x00, 0xb0, 0x00, 0x47, 0x00, 0x0e, 0x00, 0x5b, 0x00, 0x13, 0x00, 
  0x95, 0x00, 0x79, 0x00, 0x8d, 0x00, 0x57, 0x00, 0xa7, 0x00, 0x00, 0x00, 
  0x6e, 0x00, 0x00, 0x00, 0xaa, 0x00, 0x88, 0x00, 0xa7, 0x00, 0x3a, 0x00, 
  0xbf, 0x00, 0x00, 0x00, 0x30, 0x00, 0x2d, 0x00, 0x67, 0x00, 0x54, 0x00, 
  0x7a, 0x00, 0x7a, 0x00, 0x72, 0x00, 0x00, 0x00, 0x1c, 0x00, 0x3f, 0x00, 
  0x51, 0x00, 0x44, 0x00, 0x62, 0x00, 0x8d, 0x00, 0x59, 0x00, 0x00, 0x00, 
  0x1e, 0x00, 0x3b, 0x00, 0x51, 0x00, 0x44, 0x00, 0x66, 0x00, 0x8e, 0x00, 
  0x5a, 0x00, 0x03, 0x00, 0x32, 0x00, 0x2c, 0x00, 0x65, 0x00, 0x51, 0x00, 
  0x75, 0x00, 0x7f, 0x00, 0x70, 0x00, 0x06, 0x00, 0x6f, 0x00, 0x00, 0x00, 
  0xa7, 0x00, 0x84, 0x00, 0xa5, 0x00, 0x42, 0x00, 0xbc, 0x00, 0x00, 0x00, 
  0x8a, 0x00, 0x00, 0x00, 0xc4, 0x00, 0x99, 0x00, 0xbe, 0x00, 0x27, 0x00, 
  0xdd, 0x00, 0x00, 0x00, 0x4c, 0x00, 0x1f, 0x00, 0x81, 0x00, 0x66, 0x00, 
  0x85, 0x00, 0x6f, 0x00, 0x8f, 0x00, 0x07, 0x00, 0x18, 0x00, 0x4f, 0x00, 
  0x47, 0x00, 0x3d, 0x00, 0x4f, 0x00, 0xa4, 0x00, 0x4e, 0x00, 0x0f, 0x00, 
  0x03, 0x00, 0x5d, 0x00, 0x32, 0x00, 0x32, 0x00, 0x37, 0x00, 0xaa, 0x00, 
  0x36, 0x00, 0x01, 0x00, 0x00, 0x00, 0x75, 0x00, 0x1c, 0x00, 0x23, 0x00, 
  0x20, 0x00, 0xbc, 0x00, 0x1d, 0x00, 0x00, 0x00, 0x00, 0x00, 0x72, 0x00, 
  0x19, 0x00, 0x21, 0x00, 0x27, 0x00, 0xb4, 0x00, 0x1a, 0x00, 0x00, 0x00, 
  0x30, 0x00, 0x26, 0x00, 0x48, 0x00, 0x4a, 0x00, 0x55, 0x00, 0x2b, 0x00, 
  0x4e, 0x00, 0x00, 0x00, 0x53, 0x00, 0x48, 0x00, 0x61, 0x00, 0x66, 0x00, 
  0x21, 0x00, 0x1c, 0x00, 0x66, 0x00, 0x00, 0x00, 0x86, 0xf8, 0xfc, 0xff, 
  0x04, 0x00, 0x00, 0x00, 0x00, 0x08, 0x00, 0x00, 0x10, 0x00, 0x1e, 0x00, 
  0x07, 0x00, 0x20, 0x00, 0x11, 0x00, 0x05, 0x00, 0x11, 0x00, 0x16, 0x00, 
  0x19, 0x00, 0x31, 0x00, 0x0d, 0x00, 0x31, 0x00, 0x17, 0x00, 0x05, 0x00, 
  0x18, 0x00, 0x1f, 0x00, 0x22, 0x00, 0x51, 0x00, 0x14, 0x00, 0x4d, 0x00, 
  0x1a, 0x00, 0x09, 0x00, 0x1f, 0x00, 0x2f, 0x00, 0x21, 0x00, 0x50, 0x00, 
  0x17, 0x00, 0x4c, 0x00, 0x19, 0x00, 0x0f, 0x00, 0x1f, 0x00, 0x34, 0x00, 
  0x18, 0x00, 0x5a, 0x00, 0x09, 0x00, 0x56, 0x00, 0x10, 0x00, 0x00, 0x00, 
  0x15, 0x00, 0x31, 0x00, 0x17, 0x00, 0x5f, 0x00, 0x05, 0x00, 0x5b, 0x00, 
  0x0e, 0x00, 0x00, 0x00, 0x14, 0x00, 0x31, 0x00, 0x18, 0x00, 0x61, 0x00, 
  0x08, 0x00, 0x5d, 0x00, 0x0e, 0x00, 0x00, 0x00, 0x15, 0x00, 0x39, 0x00, 
  0x15, 0x00, 0x63, 0x00, 0x06, 0x00, 0x5f, 0x00, 0x0b, 0x00, 0x00, 0x00, 
  0x12, 0x00, 0x3c, 0x00, 0x17, 0x00, 0x61, 0x00, 0x08, 0x00, 0x5d, 0x00, 
  0x0d, 0x00, 0x00, 0x00, 0x14, 0x00, 0x3b, 0x00, 0x1c, 0x00, 0x5c, 0x00, 
  0x0d, 0x00, 0x58, 0x00, 0x13, 0x00, 0x00, 0x00, 0x19, 0x00, 0x36, 0x00, 
  0x22, 0x00, 0x56, 0x00, 0x12, 0x00, 0x52, 0x00, 0x1b, 0x00, 0x01, 0x00, 
  0x20, 0x00, 0x2d, 0x00, 0x26, 0x00, 0x52, 0x00, 0x15, 0x00, 0x4e, 0x00, 
  0x1f, 0x00, 0x04, 0x00, 0x23, 0x00, 0x2a, 0x00, 0x2d, 0x00, 0x4a, 0x00, 
  0x1c, 0x00, 0x47, 0x00, 0x28, 0x00, 0x0b, 0x00, 0x2b, 0x00, 0x22, 0x00, 
  0x32, 0x00, 0x45, 0x00, 0x21, 0x00, 0x41, 0x00, 0x2d, 0x00, 0x11, 0x00, 
  0x30, 0x00, 0x1e, 0x00, 0x37, 0x00, 0x41, 0x00, 0x23, 0x00, 0x3e, 0x00, 
  0x33, 0x00, 0x11, 0x00, 0x35, 0x00, 0x13, 0x00, 0x38, 0x00, 0x40, 0x00, 
  0x25, 0x00, 0x3d, 0x00, 0x35, 0x00, 0x12, 0x00, 0x37, 0x00, 0x11, 0x00, 
  0x39, 0x00, 0x3f, 0x00, 0x26, 0x00, 0x3c, 0x00, 0x36, 0x00, 0x14, 0x00, 
  0x38, 0x00, 0x11, 0x00, 0x38, 0x00, 0x40, 0x00, 0x25, 0x00, 0x3c, 0x00, 
  0x34, 0x00, 0x13, 0x00, 0x37, 0x00, 0x11, 0x00, 0x36, 0x00, 0x41, 0x00, 
  0x23, 0x00, 0x3d, 0x00, 0x32, 0x00, 0x12, 0x00, 0x34, 0x00, 0x15, 0x00, 
  0x34, 0x00, 0x41, 0x00, 0x22, 0x00, 0x3e, 0x00, 0x30, 0x00, 0x11, 0x00, 
  0x33, 0x00, 0x17, 0x00, 0x38, 0x00, 0x3e, 0x00, 0x26, 0x00, 0x3a, 0x00, 
  0x35, 0x00, 0x17, 0x00, 0x37, 0x00, 0x13, 0x00, 0x3e, 0x00, 0x39, 0x00, 
  0x2c, 0x00, 0x35, 0x00, 0x3b, 0x00, 0x1e, 0x00, 0x3d, 0x00, 0x0e, 0x00, 
  0x48, 0x00, 0x32, 0x00, 0x34, 0x00, 0x2e, 0x00, 0x46, 0x00, 0x23, 0x00, 
  0x47, 0x00, 0x02, 0x00, 0x4e, 0x00, 0x2d, 0x00, 0x39, 0x00, 0x2a, 0x00, 
  0x4d, 0x00, 0x28, 0x00, 0x4e, 0x00, 0x00, 0x00, 0x4d, 0x00, 0x2f, 0x00, 
  0x37, 0x00, 0x2b, 0x00, 0x4c, 0x00, 0x24, 0x00, 0x4d, 0x00, 0x00, 0x00, 
  0x47, 0x00, 0x33, 0x00, 0x31, 0x00, 0x30, 0x00, 0x45, 0x00, 0x1e, 0x00, 
  0x46, 0x00, 0x02, 0x00, 0x42, 0x00, 0x37, 0x00, 0x2d, 0x00, 0x34, 0x00, 
  0x40, 0x00, 0x1b, 0x00, 0x41, 0x00, 0x08, 0x00, 0x42, 0x00, 0x37, 0x00, 
  0x2d, 0x00, 0x34, 0x00, 0x40, 0x00, 0x1a, 0x00, 0x41, 0x00, 0x08, 0x00, 
  0x42, 0x00, 0x37, 0x00, 0x2d, 0x00, 0x34, 0x00, 0x41, 0x00, 0x19, 0x00, 
  0x42, 0x00, 0x07, 0x00, 0x43, 0x00, 0x37, 0x00, 0x2d, 0x00, 0x34, 0x00, 
  0x41, 0x00, 0x18, 0x00, 0x42, 0x00, 0x07, 0x00, 0x3f, 0x00, 0x3a, 0x00, 
  0x2a, 0x00, 0x37, 0x00, 0x3d, 0x00, 0x13, 0x00, 0x3e, 0x00, 0x09, 0x00, 
  0x3a, 0x00, 0x3e, 0x00, 0x25, 0x00, 0x3b, 0x00, 0x38, 0x00, 0x0e, 0x00, 
  0x39, 0x00, 0x0e, 0x00, 0x44, 0x00, 0x35, 0x00, 0x2f, 0x00, 0x32, 0x00, 
  0x43, 0x00, 0x1a, 0x00, 0x44, 0x00, 0x06, 0x00, 0x53, 0x00, 0x2a, 0x00, 
  0x3d, 0x00, 0x26, 0x00, 0x53, 0x00, 0x28, 0x00, 0x53, 0x00, 0x00, 0x00, 
  0x60, 0x00, 0x20, 0x00, 0x47, 0x00, 0x1c, 0x00, 0x62, 0x00, 0x30, 0x00, 
  0x61, 0x00, 0x00, 0x00, 0x60, 0x00, 0x1f, 0x00, 0x47, 0x00, 0x1c, 0x00, 
  0x63, 0x00, 0x31, 0x00, 0x61, 0x00, 0x00, 0x00, 0x55, 0x00, 0x27, 0x00, 
  0x3c, 0x00, 0x24, 0x00, 0x56, 0x00, 0x27, 0x00, 0x55, 0x00, 0x00, 0x00, 
  0x47, 0x00, 0x31, 0x00, 0x30, 0x00, 0x2e, 0x00, 0x47, 0x00, 0x1b, 0x00, 
  0x47, 0x00, 0x00, 0x00, 0x38, 0x00, 0x3b, 0x00, 0x24, 0x00, 0x38, 0x00, 
  0x36, 0x00, 0x13, 0x00, 0x37, 0x00, 0x10, 0x00, 0x34, 0x00, 0x3d, 0x00, 
  0x21, 0x00, 0x3b, 0x00, 0x31, 0x00, 0x0f, 0x00, 0x33, 0x00, 0x13, 0x00, 
  0x2b, 0x00, 0x44, 0x00, 0x19, 0x00, 0x41, 0x00, 0x28, 0x00, 0x09, 0x00, 
  0x2a, 0x00, 0x1d, 0x00, 0x25, 0x00, 0x48, 0x00, 0x14, 0x00, 0x46, 0x00, 
  0x21, 0x00, 0x03, 0x00, 0x23, 0x00, 0x23, 0x00, 0x1f, 0x00, 0x4c, 0x00, 
  0x0f, 0x00, 0x4a, 0x00, 0x1a, 0x00, 0x00, 0x00, 0x1d, 0x00, 0x2a, 0x00, 
  0x1f, 0x00, 0x4c, 0x00, 0x0f, 0x00, 0x4a, 0x00, 0x1a, 0x00, 0x00, 0x00, 
  0x1d, 0x00, 0x2a, 0x00, 0x27, 0x00, 0x46, 0x00, 0x17, 0x00, 0x43, 0x00, 
  0x23, 0x00, 0x07, 0x00, 0x26, 0x00, 0x22, 0x00, 0x30, 0x00, 0x3f, 0x00, 
  0x1f, 0x00, 0x3c, 0x00, 0x2c, 0x00, 0x11, 0x00, 0x2f, 0x00, 0x1b, 0x00, 
  0x3c, 0x00, 0x36, 0x00, 0x29, 0x00, 0x33, 0x00, 0x3b, 0x00, 0x18, 0x00, 
  0x3c, 0x00, 0x0c, 0x00, 0x42, 0x00, 0x31, 0x00, 0x2f, 0x00, 0x2e, 0x00, 
  0x41, 0x00, 0x1e, 0x00, 0x42, 0x00, 0x07, 0x00, 0x48, 0x00, 0x2d, 0x00, 
  0x33, 0x00, 0x2a, 0x00, 0x48, 0x00, 0x21, 0x00, 0x48, 0x00, 0x00, 0x00, 
  0x49, 0x00, 0x2d, 0x00, 0x34, 0x00, 0x2a, 0x00, 0x49, 0x00, 0x21, 0x00, 
  0x49, 0x00, 0x00, 0x00, 0x4b, 0x00, 0x2b, 0x00, 0x35, 0x00, 0x28, 0x00, 
  0x4b, 0x00, 0x22, 0x00, 0x4b, 0x00, 0x00, 0x00, 0x4c, 0x00, 0x2a, 0x00, 
  0x36, 0x00, 0x27, 0x00, 0x4d, 0x00, 0x23, 0x00, 0x4d, 0x00, 0x00, 0x00, 
  0x46, 0x00, 0x2f, 0x00, 0x30, 0x00, 0x2d, 0x00, 0x46, 0x00, 0x1b, 0x00, 
  0x46, 0x00, 0x00, 0x00, 0x3d, 0x00, 0x36, 0x00, 0x28, 0x00, 0x33, 0x00, 
  0x3c, 0x00, 0x13, 0x00, 0x3d, 0x00, 0x09, 0x00, 0x2f, 0x00, 0x40, 0x00, 
  0x1c, 0x00, 0x3d, 0x00, 0x2d, 0x00, 0x08, 0x00, 0x2f, 0x00, 0x17, 0x00, 
  0x28, 0x00, 0x45, 0x00, 0x15, 0x00, 0x43, 0x00, 0x25, 0x00, 0x01, 0x00, 
  0x27, 0x00, 0x1e, 0x00, 0x26, 0x00, 0x46, 0x00, 0x15, 0x00, 0x44, 0x00, 
  0x22, 0x00, 0x02, 0x00, 0x25, 0x00, 0x22, 0x00, 0x2a, 0x00, 0x42, 0x00, 
  0x18, 0x00, 0x40, 0x00, 0x27, 0x00, 0x07, 0x00, 0x29, 0x00, 0x1e, 0x00, 
  0x2a, 0x00, 0x41, 0x00, 0x18, 0x00, 0x3f, 0x00, 0x27, 0x00, 0x07, 0x00, 
  0x29, 0x00, 0x1d, 0x00, 0x27, 0x00, 0x43, 0x00, 0x16, 0x00, 0x41, 0x00, 
  0x24, 0x00, 0x05, 0x00, 0x26, 0x00, 0x20, 0x00, 0x22, 0x00, 0x46, 0x00, 
  0x12, 0x00, 0x44, 0x00, 0x1e, 0x00, 0x02, 0x00, 0x20, 0x00, 0x26, 0x00, 
  0x1f, 0x00, 0x48, 0x00, 0x10, 0x00, 0x46, 0x00, 0x1b, 0x00, 0x01, 0x00, 
  0x1e, 0x00, 0x29, 0x00, 0x1d, 0x00, 0x49, 0x00, 0x0e, 0x00, 0x47, 0x00, 
  0x19, 0x00, 0x01, 0x00, 0x1c, 0x00, 0x2a, 0x00, 0x1f, 0x00, 0x47, 0x00, 
  0x10, 0x00, 0x45, 0x00, 0x1a, 0x00, 0x03, 0x00, 0x1d, 0x00, 0x29, 0x00, 
  0x19, 0x00, 0x4b, 0x00, 0x0a, 0x00, 0x49, 0x00, 0x14, 0x00, 0x00, 0x00, 
  0x17, 0x00, 0x2e, 0x00, 0x12, 0x00, 0x51, 0x00, 0x03, 0x00, 0x4f, 0x00, 
  0x0c, 0x00, 0x00, 0x00, 0x10, 0x00, 0x35, 0x00, 0x0a, 0x00, 0x57, 0x00, 
  0x00, 0x00, 0x55, 0x00, 0x04, 0x00, 0x00, 0x00, 0x08, 0x00, 0x3d, 0x00, 
  0x09, 0x00, 0x57, 0x00, 0x00, 0x00, 0x56, 0x00, 0x03, 0x00, 0x00, 0x00, 
  0x07, 0x00, 0x3e, 0x00, 0x0f, 0x00, 0x53, 0x00, 0x02, 0x00, 0x51, 0x00, 
  0x0a, 0x00, 0x00, 0x00, 0x0d, 0x00, 0x39, 0x00, 0x16, 0x00, 0x4e, 0x00, 
  0x08, 0x00, 0x4c, 0x00, 0x11, 0x00, 0x00, 0x00, 0x14, 0x00, 0x33, 0x00, 
  0x1f, 0x00, 0x47, 0x00, 0x0f, 0x00, 0x46, 0x00, 0x1b, 0x00, 0x00, 0x00, 
  0x1d, 0x00, 0x28, 0x00, 0x22, 0x00, 0x45, 0x00, 0x12, 0x00, 0x43, 0x00, 
  0x1f, 0x00, 0x02, 0x00, 0x21, 0x00, 0x25, 0x00, 0x2b, 0x00, 0x3f, 0x00, 
  0x19, 0x00, 0x3d, 0x00, 0x29, 0x00, 0x07, 0x00, 0x2a, 0x00, 0x1b, 0x00, 
  0x31, 0x00, 0x3a, 0x00, 0x1e, 0x00, 0x38, 0x00, 0x30, 0x00, 0x0c, 0x00, 
  0x30, 0x00, 0x15, 0x00, 0x33, 0x00, 0x38, 0x00, 0x20, 0x00, 0x36, 0x00, 
  0x33, 0x00, 0x0d, 0x00, 0x33, 0x00, 0x11, 0x00, 0x2f, 0x00, 0x3b, 0x00, 
  0x1c, 0x00, 0x39, 0x00, 0x2e, 0x00, 0x09, 0x00, 0x2f, 0x00, 0x15, 0x00, 
  0x26, 0x00, 0x41, 0x00, 0x14, 0x00, 0x40, 0x00, 0x24, 0x00, 0x02, 0x00, 
  0x25, 0x00, 0x1f, 0x00, 0x1f, 0x00, 0x46, 0x00, 0x0e, 0x00, 0x44, 0x00, 
  0x1c, 0x00, 0x00, 0x00, 0x1e, 0x00, 0x25, 0x00, 0x17, 0x00, 0x4b, 0x00, 
  0x07, 0x00, 0x4a, 0x00, 0x13, 0x00, 0x00, 0x00, 0x16, 0x00, 0x2e, 0x00, 
  0x15, 0x00, 0x4d, 0x00, 0x05, 0x00, 0x4b, 0x00, 0x11, 0x00, 0x00, 0x00, 
  0x13, 0x00, 0x30, 0x00, 0x12, 0x00, 0x4e, 0x00, 0x03, 0x00, 0x4d, 0x00, 
  0x0d, 0x00, 0x00, 0x00, 0x10, 0x00, 0x34, 0x00, 0x11, 0x00, 0x4f, 0x00, 
  0x02, 0x00, 0x4e, 0x00, 0x0c, 0x00, 0x00, 0x00, 0x0f, 0x00, 0x35, 0x00, 
  0x11, 0x00, 0x4e, 0x00, 0x03, 0x00, 0x4d, 0x00, 0x0d, 0x00, 0x00, 0x00, 
  0x10, 0x00, 0x34, 0x00, 0x13, 0x00, 0x4c, 0x00, 0x05, 0x00, 0x4b, 0x00, 
  0x0f, 0x00, 0x00, 0x00, 0x12, 0x00, 0x33, 0x00, 0x15, 0x00, 0x4b, 0x00, 
  0x06, 0x00, 0x4a, 0x00, 0x11, 0x00, 0x00, 0x00, 0x13, 0x00, 0x31, 0x00, 
  0x15, 0x00, 0x4b, 0x00, 0x07, 0x00, 0x4a, 0x00, 0x11, 0x00, 0x00, 0x00, 
  0x13, 0x00, 0x31, 0x00, 0x15, 0x00, 0x4b, 0x00, 0x06, 0x00, 0x4a, 0x00, 
  0x11, 0x00, 0x00, 0x00, 0x13, 0x00, 0x30, 0x00, 0x15, 0x00, 0x4b, 0x00, 
  0x06, 0x00, 0x4a, 0x00, 0x11, 0x00, 0x00, 0x00, 0x13, 0x00, 0x30, 0x00, 
  0x14, 0x00, 0x4b, 0x00, 0x06, 0x00, 0x4a, 0x00, 0x11, 0x00, 0x00, 0x00, 
  0x13, 0x00, 0x30, 0x00, 0x14, 0x00, 0x4c, 0x00, 0x05, 0x00, 0x4a, 0x00, 
  0x10, 0x00, 0x00, 0x00, 0x12, 0x00, 0x31, 0x00, 0x13, 0x00, 0x4c, 0x00, 
  0x04, 0x00, 0x4b, 0x00, 0x0f, 0x00, 0x00, 0x00, 0x11, 0x00, 0x32, 0x00, 
  0x12, 0x00, 0x4d, 0x00, 0x04, 0x00, 0x4c, 0x00, 0x0f, 0x00, 0x00, 0x00, 
  0x11, 0x00, 0x32, 0x00, 0x16, 0x00, 0x4b, 0x00, 0x07, 0x00, 0x49, 0x00, 
  0x12, 0x00, 0x00, 0x00, 0x14, 0x00, 0x2f, 0x00, 0x19, 0x00, 0x48, 0x00, 
  0x0a, 0x00, 0x47, 0x00, 0x16, 0x00, 0x00, 0x00, 0x18, 0x00, 0x2c, 0x00, 
  0x20, 0x00, 0x43, 0x00, 0x10, 0x00, 0x42, 0x00, 0x1e, 0x00, 0x00, 0x00, 
  0x1f, 0x00, 0x24, 0x00, 0x25, 0x00, 0x40, 0x00, 0x14, 0x00, 0x3f, 0x00, 
  0x23, 0x00, 0x03, 0x00, 0x24, 0x00, 0x20, 0x00, 0x3a, 0x00, 0x31, 0x00, 
  0x27, 0x00, 0x2f, 0x00, 0x3b, 0x00, 0x14, 0x00, 0x3a, 0x00, 0x0b, 0x00, 
  0x4c, 0x00, 0x23, 0x00, 0x38, 0x00, 0x21, 0x00, 0x4f, 0x00, 0x25, 0x00, 
  0x4d, 0x00, 0x00, 0x00, 0x61, 0x00, 0x14, 0x00, 0x48, 0x00, 0x12, 0x00, 
  0x67, 0x00, 0x32, 0x00, 0x63, 0x00, 0x00, 0x00, 0x66, 0x00, 0x10, 0x00, 
  0x4d, 0x00, 0x0e, 0x00, 0x6c, 0x00, 0x37, 0x00, 0x68, 0x00, 0x00, 0x00, 
  0x5c, 0x00, 0x17, 0x00, 0x43, 0x00, 0x15, 0x00, 0x62, 0x00, 0x2c, 0x00, 
  0x5e, 0x00, 0x00, 0x00, 0x4e, 0x00, 0x22, 0x00, 0x36, 0x00, 0x20, 0x00, 
  0x51, 0x00, 0x20, 0x00, 0x4f, 0x00, 0x00, 0x00, 0x3c, 0x00, 0x2e, 0x00, 
  0x28, 0x00, 0x2c, 0x00, 0x3e, 0x00, 0x15, 0x00, 0x3d, 0x00, 0x06, 0x00, 
  0x37, 0x00, 0x31, 0x00, 0x23, 0x00, 0x30, 0x00, 0x38, 0x00, 0x11, 0x00, 
  0x38, 0x00, 0x0a, 0x00, 0x34, 0x00, 0x34, 0x00, 0x21, 0x00, 0x32, 0x00, 
  0x34, 0x00, 0x10, 0x00, 0x34, 0x00, 0x0f, 0x00, 0x34, 0x00, 0x33, 0x00, 
  0x21, 0x00, 0x32, 0x00, 0x34, 0x00, 0x10, 0x00, 0x34, 0x00, 0x0f, 0x00, 
  0x38, 0x00, 0x31, 0x00, 0x25, 0x00, 0x2f, 0x00, 0x38, 0x00, 0x13, 0x00, 
  0x38, 0x00, 0x0b, 0x00, 0x3c, 0x00, 0x2e, 0x00, 0x28, 0x00, 0x2c, 0x00, 
  0x3d, 0x00, 0x17, 0x00, 0x3c, 0x00, 0x08, 0x00, 0x4d, 0x00, 0x22, 0x00, 
  0x37, 0x00, 0x20, 0x00, 0x50, 0x00, 0x24, 0x00, 0x4e, 0x00, 0x00, 0x00, 
  0x5c, 0x00, 0x17, 0x00, 0x45, 0x00, 0x15, 0x00, 0x60, 0x00, 0x31, 0x00, 
  0x5d, 0x00, 0x00, 0x00, 0x6e, 0x00, 0x0a, 0x00, 0x53, 0x00, 0x08, 0x00, 
  0x76, 0x00, 0x3b, 0x00, 0x71, 0x00, 0x00, 0x00, 0x75, 0x00, 0x06, 0x00, 
  0x59, 0x00, 0x04, 0x00, 0x7d, 0x00, 0x40, 0x00, 0x77, 0x00, 0x00, 0x00, 
  0x6c, 0x00, 0x0c, 0x00, 0x50, 0x00, 0x0a, 0x00, 0x73, 0x00, 0x36, 0x00, 
  0x6e, 0x00, 0x00, 0x00, 0x5d, 0x00, 0x17, 0x00, 0x42, 0x00, 0x15, 0x00, 
  0x63, 0x00, 0x28, 0x00, 0x5f, 0x00, 0x00, 0x00, 0x44, 0x00, 0x28, 0x00, 
  0x2e, 0x00, 0x27, 0x00, 0x47, 0x00, 0x18, 0x00, 0x45, 0x00, 0x00, 0x00, 
  0x37, 0x00, 0x32, 0x00, 0x21, 0x00, 0x31, 0x00, 0x39, 0x00, 0x0b, 0x00, 
  0x38, 0x00, 0x08, 0x00, 0x29, 0x00, 0x3b, 0x00, 0x17, 0x00, 0x3a, 0x00, 
  0x28, 0x00, 0x04, 0x00, 0x29, 0x00, 0x19, 0x00, 0x25, 0x00, 0x3e, 0x00, 
  0x13, 0x00, 0x3d, 0x00, 0x24, 0x00, 0x01, 0x00, 0x24, 0x00, 0x1d, 0x00, 
  0x1e, 0x00, 0x42, 0x00, 0x0d, 0x00, 0x41, 0x00, 0x1c, 0x00, 0x00, 0x00, 
  0x1d, 0x00, 0x25, 0x00, 0x1a, 0x00, 0x45, 0x00, 0x09, 0x00, 0x44, 0x00, 
  0x18, 0x00, 0x00, 0x00, 0x19, 0x00, 0x29, 0x00, 0x16, 0x00, 0x46, 0x00, 
  0x07, 0x00, 0x46, 0x00, 0x14, 0x00, 0x00, 0x00, 0x15, 0x00, 0x2e, 0x00, 
  0x16, 0x00, 0x45, 0x00, 0x07, 0x00, 0x45, 0x00, 0x14, 0x00, 0x00, 0x00, 
  0x15, 0x00, 0x30, 0x00, 0x20, 0x00, 0x3c, 0x00, 0x11, 0x00, 0x3b, 0x00, 
  0x1f, 0x00, 0x04, 0x00, 0x1f, 0x00, 0x25, 0x00, 0x2b, 0x00, 0x30, 0x00, 
  0x1c, 0x00, 0x2f, 0x00, 0x2c, 0x00, 0x13, 0x00, 0x2b, 0x00, 0x1b, 0x00, 
  0x38, 0x00, 0x26, 0x00, 0x25, 0x00, 0x25, 0x00, 0x3b, 0x00, 0x17, 0x00, 
  0x39, 0x00, 0x05, 0x00, 0x2a, 0x00, 0x25, 0x00, 0x18, 0x00, 0x27, 0x00, 
  0x2c, 0x00, 0x0a, 0x00, 0x2a, 0x00, 0x00, 0x00, 0x1c, 0x00, 0x23, 0x00, 
  0x0e, 0x00, 0x28, 0x00, 0x1e, 0x00, 0x00, 0x00, 0x1d, 0x00, 0x00, 0x00, 
  0x00, 0x00, 0x00, 0x00, 0x00, 0x00, 0x00, 0x00, 0x00, 0x00, 0x00, 0x00, 
  0x00, 0x00, 0x00, 0x00, 0x34, 0x7f, 0xfc, 0xff, 0x38, 0x7f, 0xfc, 0xff, 
  0x3c, 0x7f, 0xfc, 0xff, 0x40, 0x7f, 0xfc, 0xff, 0x44, 0x7f, 0xfc, 0xff, 
  0x48, 0x7f, 0xfc, 0xff, 0x4c, 0x7f, 0xfc, 0xff, 0x50, 0x7f, 0xfc, 0xff, 
  0x54, 0x7f, 0xfc, 0xff, 0x58, 0x7f, 0xfc, 0xff, 0x5c, 0x7f, 0xfc, 0xff, 
  0x60, 0x7f, 0xfc, 0xff, 0x64, 0x7f, 0xfc, 0xff, 0x68, 0x7f, 0xfc, 0xff, 
  0x6c, 0x7f, 0xfc, 0xff, 0x70, 0x7f, 0xfc, 0xff, 0x74, 0x7f, 0xfc, 0xff, 
  0x78, 0x7f, 0xfc, 0xff, 0x7c, 0x7f, 0xfc, 0xff, 0x80, 0x7f, 0xfc, 0xff, 
  0x84, 0x7f, 0xfc, 0xff, 0x88, 0x7f, 0xfc, 0xff, 0x8c, 0x7f, 0xfc, 0xff, 
  0x90, 0x7f, 0xfc, 0xff, 0x94, 0x7f, 0xfc, 0xff, 0x98, 0x7f, 0xfc, 0xff, 
  0x9c, 0x7f, 0xfc, 0xff, 0xa0, 0x7f, 0xfc, 0xff, 0xa4, 0x7f, 0xfc, 0xff, 
  0xa8, 0x7f, 0xfc, 0xff, 0xac, 0x7f, 0xfc, 0xff, 0xb0, 0x7f, 0xfc, 0xff, 
  0xb4, 0x7f, 0xfc, 0xff, 0xb8, 0x7f, 0xfc, 0xff, 0xbc, 0x7f, 0xfc, 0xff, 
  0xc0, 0x7f, 0xfc, 0xff, 0xc4, 0x7f, 0xfc, 0xff, 0xc8, 0x7f, 0xfc, 0xff, 
  0xcc, 0x7f, 0xfc, 0xff, 0xd0, 0x7f, 0xfc, 0xff, 0xd4, 0x7f, 0xfc, 0xff, 
  0xd8, 0x7f, 0xfc, 0xff, 0xdc, 0x7f, 0xfc, 0xff, 0xe0, 0x7f, 0xfc, 0xff, 
  0xe4, 0x7f, 0xfc, 0xff, 0xe8, 0x7f, 0xfc, 0xff, 0xec, 0x7f, 0xfc, 0xff, 
  0xf0, 0x7f, 0xfc, 0xff, 0xf4, 0x7f, 0xfc, 0xff, 0xf8, 0x7f, 0xfc, 0xff, 
  0xfc, 0x7f, 0xfc, 0xff, 0x00, 0x80, 0xfc, 0xff, 0x04, 0x80, 0xfc, 0xff, 
  0x08, 0x80, 0xfc, 0xff, 0x0c, 0x80, 0xfc, 0xff, 0x10, 0x80, 0xfc, 0xff, 
  0x14, 0x80, 0xfc, 0xff, 0x18, 0x80, 0xfc, 0xff, 0x1c, 0x80, 0xfc, 0xff, 
  0x20, 0x80, 0xfc, 0xff, 0x24, 0x80, 0xfc, 0xff, 0x28, 0x80, 0xfc, 0xff, 
  0x2c, 0x80, 0xfc, 0xff, 0x30, 0x80, 0xfc, 0xff, 0x34, 0x80, 0xfc, 0xff, 
  0x38, 0x80, 0xfc, 0xff, 0x3c, 0x80, 0xfc, 0xff, 0x40, 0x80, 0xfc, 0xff, 
  0x44, 0x80, 0xfc, 0xff, 0x48, 0x80, 0xfc, 0xff, 0x4c, 0x80, 0xfc, 0xff, 
  0x50, 0x80, 0xfc, 0xff, 0x54, 0x80, 0xfc, 0xff, 0x58, 0x80, 0xfc, 0xff, 
  0x5c, 0x80, 0xfc, 0xff, 0x60, 0x80, 0xfc, 0xff, 0x64, 0x80, 0xfc, 0xff, 
  0x68, 0x80, 0xfc, 0xff, 0x6c, 0x80, 0xfc, 0xff, 0x70, 0x80, 0xfc, 0xff, 
  0x74, 0x80, 0xfc, 0xff, 0x78, 0x80, 0xfc, 0xff, 0x7c, 0x80, 0xfc, 0xff, 
  0x80, 0x80, 0xfc, 0xff, 0x84, 0x80, 0xfc, 0xff, 0x88, 0x80, 0xfc, 0xff, 
  0x8c, 0x80, 0xfc, 0xff, 0x90, 0x80, 0xfc, 0xff, 0x94, 0x80, 0xfc, 0xff, 
  0x98, 0x80, 0xfc, 0xff, 0x9c, 0x80, 0xfc, 0xff, 0xa0, 0x80, 0xfc, 0xff, 
  0xa4, 0x80, 0xfc, 0xff, 0xa8, 0x80, 0xfc, 0xff, 0xac, 0x80, 0xfc, 0xff, 
  0xb0, 0x80, 0xfc, 0xff, 0xb4, 0x80, 0xfc, 0xff, 0xb8, 0x80, 0xfc, 0xff, 
  0xbc, 0x80, 0xfc, 0xff, 0xc0, 0x80, 0xfc, 0xff, 0xc4, 0x80, 0xfc, 0xff, 
  0xc8, 0x80, 0xfc, 0xff, 0xcc, 0x80, 0xfc, 0xff, 0xd0, 0x80, 0xfc, 0xff, 
  0xd4, 0x80, 0xfc, 0xff, 0xd8, 0x80, 0xfc, 0xff, 0xdc, 0x80, 0xfc, 0xff, 
  0xe0, 0x80, 0xfc, 0xff, 0xe4, 0x80, 0xfc, 0xff, 0x46, 0x02, 0xfd, 0xff, 
  0x04, 0x00, 0x00, 0x00, 0x01, 0x02, 0x01, 0x00, 0xf5, 0xf4, 0xf4, 0x03, 
  0xfd, 0x02, 0xfd, 0xfa, 0x0c, 0xfd, 0xfe, 0xfb, 0x02, 0x00, 0xfa, 0xfd, 
  0xfd, 0xfd, 0xfb, 0xfd, 0xfc, 0x01, 0xfd, 0xff, 0x01, 0x00, 0x00, 0x00, 
  0x01, 0x00, 0x00, 0x02, 0x02, 0x01, 0xff, 0x00, 0x01, 0x01, 0xfd, 0xff, 
  0x01, 0xfe, 0xff, 0xff, 0x02, 0xff, 0x02, 0x02, 0x03, 0x03, 0x01, 0x02, 
  0x02, 0x01, 0xff, 0x00, 0x01, 0x01, 0xff, 0x01, 0x01, 0x01, 0xff, 0x01, 
  0x01, 0x01, 0xff, 0x00, 0x01, 0x00, 0xfe, 0x00, 0x01, 0xff, 0xfe, 0xff, 
  0x01, 0xff, 0x00, 0xff, 0x00, 0x00, 0x00, 0xff, 0x00, 0xff, 0xff, 0xff, 
  0x00, 0xfe, 0x00, 0x00, 0x01, 0x00, 0xff, 0x00, 0xff, 0x00, 0xfe, 0x00, 
  0x00, 0x00, 0xfe, 0x00, 0x01, 0x00, 0x00, 0x00, 0x02, 0x00, 0x01, 0x00, 
  0x01, 0x01, 0x00, 0x00, 0x00, 0x00, 0xfe, 0xff, 0x00, 0xff, 0xfc, 0xff, 
  0x01, 0x00, 0xfd, 0x01, 0x01, 0x01, 0xff, 0x03, 0x02, 0x02, 0x00, 0x02, 
  0xff, 0x01, 0xfa, 0xff, 0xfd, 0x00, 0xfc, 0x00, 0x01, 0x02, 0x00, 0x01, 
  0x08, 0x02, 0x0b, 0x05, 0x0a, 0x05, 0x0b, 0x04, 0x07, 0x05, 0x03, 0x02, 
  0x06, 0x04, 0xfc, 0xff, 0xfe, 0xff, 0xf8, 0xfe, 0xf7, 0xfe, 0xfe, 0x00, 
  0xfb, 0xff, 0xff, 0xff, 0x01, 0xff, 0x02, 0x01, 0x02, 0x01, 0xfb, 0x01, 
  0xf9, 0xff, 0xf4, 0x00, 0xf8, 0xfd, 0xf6, 0xff, 0xfc, 0xfe, 0xfa, 0xfd, 
  0xff, 0xfc, 0xfd, 0xfd, 0xff, 0xfd, 0x03, 0xff, 0x01, 0x01, 0x00, 0x01, 
  0xfe, 0x00, 0xfd, 0x00, 0xfe, 0x00, 0xf8, 0xff, 0xff, 0xfe, 0xff, 0xff, 
  0xff, 0x00, 0x00, 0xff, 0x00, 0xff, 0xff, 0xff, 0x00, 0xff, 0xff, 0xff, 
  0xff, 0xfe, 0xff, 0xfe, 0xff, 0xfe, 0xff, 0xff, 0xfe, 0x00, 0xfc, 0x00, 
  0xfe, 0x00, 0x00, 0x01, 0x01, 0x01, 0x00, 0x01, 0x00, 0x02, 0xfb, 0x02, 
  0xfc, 0x01, 0xf0, 0xf7, 0x05, 0xfb, 0x03, 0x02, 0xf6, 0x10, 0xf7, 0x03, 
  0xf7, 0x06, 0xfc, 0xfd, 0xfb, 0xff, 0xfb, 0xfd, 0xfd, 0xfe, 0x01, 0xfe, 
  0xff, 0x00, 0x00, 0x00, 0x00, 0x01, 0x00, 0x00, 0x01, 0x01, 0x00, 0xff, 
  0x00, 0x00, 0x00, 0xfe, 0xff, 0x01, 0xfe, 0x00, 0xff, 0x02, 0x00, 0x02, 
  0x00, 0x01, 0x01, 0x00, 0x00, 0x02, 0xff, 0x01, 0x00, 0x01, 0x01, 0x01, 
  0x01, 0x01, 0x02, 0x01, 0x01, 0x01, 0x01, 0x00, 0x00, 0x00, 0x00, 0xfe, 
  0xff, 0x00, 0xfe, 0xfe, 0xff, 0x00, 0xff, 0x01, 0x00, 0x00, 0x00, 0x01, 
  0x00, 0x00, 0x00, 0x00, 0x00, 0x00, 0xff, 0xff, 0x00, 0x00, 0xff, 0xff, 
  0xff, 0xff, 0xff, 0xfe, 0xff, 0xff, 0xff, 0xff, 0x00, 0x01, 0xff, 0x00, 
  0x00, 0x01, 0x00, 0x01, 0x00, 0x00, 0x00, 0x01, 0x01, 0xff, 0x00, 0xff, 
  0x00, 0xff, 0xff, 0xfe, 0xff, 0x00, 0xfe, 0x00, 0x00, 0x00, 0x01, 0xff, 
  0x01, 0x02, 0x01, 0x00, 0x01, 0xfe, 0x00, 0xfd, 0x00, 0xff, 0x00, 0xfe, 
  0x00, 0x03, 0x02, 0x07, 0x01, 0x08, 0x03, 0x0c, 0x06, 0x09, 0x06, 0x0a, 
  0x04, 0x03, 0x05, 0x01, 0x01, 0x03, 0x01, 0x00, 0xff, 0x01, 0x00, 0xfd, 
  0xff, 0xf9, 0xff, 0xf9, 0xff, 0xfd, 0xff, 0xff, 0xff, 0x00, 0x00, 0x01, 
  0x00, 0x00, 0x01, 0xfd, 0x03, 0xfb, 0x01, 0xf2, 0x02, 0xf5, 0xff, 0xef, 
  0xff, 0xf8, 0xfe, 0xf8, 0xff, 0xfe, 0xfd, 0xfd, 0xfe, 0xfe, 0xfd, 0x01, 
  0xff, 0xff, 0x00, 0xfe, 0x01, 0xfc, 0x01, 0xfb, 0x01, 0xfb, 0x01, 0xf4, 
  0xff, 0xfd, 0xfe, 0xff, 0xff, 0xff, 0x00, 0x01, 0x00, 0x00, 0x00, 0xff, 
  0x00, 0xff, 0xff, 0xfe, 0xff, 0xff, 0xff, 0xfe, 0xff, 0xff, 0xff, 0xfe, 
  0xfe, 0xff, 0xff, 0x00, 0x00, 0xff, 0x00, 0xff, 0x00, 0xff, 0x00, 0xff, 
  0x00, 0xff, 0xff, 0x00, 0x00, 0xf3, 0xfd, 0xf1, 0xf5, 0xff, 0xfa, 0x03, 
  0x00, 0xe8, 0x16, 0xe6, 0x13, 0xe3, 0x14, 0xef, 0x07, 0xf3, 0x0a, 0xf2, 
  0x05, 0xf8, 0x03, 0xfd, 0x00, 0xfd, 0xff, 0xff, 0x01, 0xff, 0x00, 0xff, 
  0x02, 0x00, 0x00, 0x00, 0x02, 0x01, 0x00, 0x00, 0x00, 0xff, 0x01, 0x00, 
  0x02, 0x00, 0x01, 0x00, 0x01, 0xff, 0x00, 0xff, 0x00, 0xff, 0x01, 0xfe, 
  0x01, 0xff, 0x01, 0x00, 0x03, 0x01, 0x01, 0x02, 0x03, 0x03, 0x01, 0x02, 
  0x02, 0x02, 0x00, 0x01, 0x01, 0x00, 0x00, 0x00, 0x00, 0xff, 0x00, 0x00, 
  0x01, 0x00, 0xff, 0x00, 0x01, 0x00, 0xff, 0x00, 0xff, 0x00, 0x00, 0xff, 
  0xfe, 0x00, 0x00, 0xff, 0xff, 0xff, 0xff, 0xff, 0xff, 0xff, 0x00, 0x00, 
  0x00, 0x00, 0x00, 0x00, 0x01, 0x00, 0x00, 0x00, 0x01, 0x00, 0x00, 0x00, 
  0x01, 0x00, 0x00, 0xff, 0x01, 0x00, 0xff, 0xff, 0x00, 0xff, 0xff, 0xfe, 
  0x00, 0xfe, 0xfe, 0xfe, 0x01, 0xfe, 0x04, 0xff, 0x00, 0x00, 0x01, 0xfe, 
  0x01, 0xff, 0x00, 0xff, 0x01, 0xfe, 0x04, 0x01, 0x0d, 0x02, 0x07, 0x03, 
  0x09, 0x04, 0x07, 0x05, 0x08, 0x03, 0x01, 0x03, 0x02, 0x00, 0x01, 0x00, 
  0x02, 0xff, 0x01, 0xff, 0xff, 0x00, 0xfe, 0xff, 0xfa, 0xff, 0xfe, 0x00, 
  0x00, 0x00, 0xff, 0x00, 0x01, 0xff, 0x00, 0x00, 0xfd, 0x02, 0xfc, 0x01, 
  0xf2, 0x01, 0xf6, 0xfe, 0xef, 0xfe, 0xf6, 0xfe, 0xf9, 0xfe, 0xfe, 0xfe, 
  0xff, 0xff, 0xfe, 0xff, 0xff, 0x00, 0xfd, 0x00, 0xfb, 0x00, 0xfe, 0x00, 
  0xfa, 0x00, 0xfd, 0x00, 0xf7, 0xff, 0xfd, 0xfe, 0xff, 0xff, 0xfe, 0xff, 
  0x00, 0xff, 0xff, 0xff, 0xfe, 0xff, 0xff, 0xff, 0xff, 0xff, 0xff, 0xff, 
  0xff, 0xff, 0xff, 0xff, 0xff, 0xff, 0xff, 0xff, 0x00, 0x00, 0xff, 0x00, 
  0xfe, 0x00, 0xff, 0xff, 0xff, 0x00, 0xff, 0xfe, 0x02, 0xff, 0xf5, 0x02, 
  0xfa, 0xf0, 0xf8, 0xf8, 0xfc, 0xf2, 0x08, 0xf1, 0xe1, 0x1a, 0xe6, 0x07, 
  0xe3, 0x01, 0xf4, 0xfd, 0xeb, 0x12, 0xf4, 0x03, 0xf9, 0x05, 0xfc, 0xff, 
  0xff, 0x03, 0xfe, 0xff, 0xff, 0x03, 0xff, 0xff, 0x00, 0x03, 0x01, 0x00, 
  0x00, 0x02, 0x00, 0x00, 0x00, 0x02, 0x00, 0x01, 0xff, 0x02, 0xfe, 0xff, 
  0xff, 0x01, 0xfe, 0xff, 0xfe, 0x00, 0xfe, 0x00, 0xfe, 0x04, 0xff, 0x03, 
  0x00, 0x06, 0x02, 0x02, 0x03, 0x06, 0x03, 0x01, 0x03, 0x03, 0x02, 0x02, 
  0x02, 0x01, 0x00, 0x00, 0x01, 0x00, 0x00, 0xff, 0x00, 0x00, 0x00, 0x00, 
  0xff, 0x00, 0xff, 0xff, 0xfe, 0x01, 0x00, 0xfe, 0xff, 0x00, 0xff, 0xfe, 
  0x00, 0x01, 0x00, 0xff, 0x00, 0x01, 0x00, 0x00, 0x00, 0x01, 0x00, 0x00, 
  0xff, 0x01, 0xff, 0x00, 0xff, 0x02, 0xff, 0x00, 0xff, 0x03, 0xff, 0x00, 
  0xff, 0x02, 0xff, 0xff, 0xff, 0x01, 0xfe, 0xfe, 0xfe, 0x01, 0xfe, 0x02, 
  0xff, 0x00, 0x00, 0x01, 0xff, 0x03, 0x00, 0x00, 0x01, 0x02, 0xfe, 0x04, 
  0x00, 0x0c, 0x01, 0x06, 0x02, 0x06, 0x03, 0x04, 0x03, 0x06, 0x02, 0x02, 
  0x02, 0x04, 0x01, 0x01, 0x01, 0x02, 0x00, 0x00, 0xff, 0x02, 0xff, 0xfe, 
  0xff, 0xff, 0x00, 0xfe, 0x00, 0x00, 0x00, 0xfe, 0x00, 0x00, 0xff, 0x00, 
  0xff, 0xfe, 0x00, 0xfd, 0x00, 0xf4, 0x00, 0xf6, 0xfc, 0xf0, 0xfc, 0xf5, 
  0xfc, 0xfb, 0xfe, 0xff, 0xfe, 0xff, 0xff, 0xff, 0xfe, 0xff, 0x00, 0xfd, 
  0x01, 0xf8, 0x01, 0xfd, 0x00, 0xf2, 0xff, 0xfc, 0xfe, 0xf9, 0xff, 0xfc, 
  0xfd, 0x01, 0xff, 0xfe, 0xff, 0xfe, 0xfe, 0xfe, 0xfe, 0xfe, 0xfe, 0xff, 
  0xfe, 0xff, 0xff, 0xff, 0xff, 0x00, 0xff, 0x00, 0x00, 0x01, 0x01, 0x00, 
  0x00, 0xff, 0x00, 0xfe, 0x00, 0xfc, 0xff, 0xfe, 0xfe, 0xfe, 0xff, 0xff, 
  0xfe, 0x02, 0xff, 0xf4, 0x06, 0xfd, 0xf4, 0xf7, 0xf9, 0xfe, 0xed, 0x06, 
  0xd6, 0x17, 0xee, 0xf6, 0xe9, 0xf8, 0x02, 0x03, 0xe7, 0xf4, 0x0f, 0xfb, 
  0xf8, 0xfb, 0x09, 0x00, 0xfe, 0x00, 0x05, 0xfe, 0xfd, 0x00, 0x02, 0x00, 
  0xfe, 0xff, 0x02, 0x01, 0x00, 0x00, 0x03, 0x00, 0x00, 0x01, 0x04, 0x01, 
  0xff, 0xff, 0x03, 0xff, 0xfe, 0x00, 0x02, 0x00, 0xfd, 0xff, 0x00, 0xff, 
  0xff, 0xfe, 0x03, 0xff, 0x01, 0xff, 0x05, 0x01, 0x02, 0x02, 0x06, 0x02, 
  0x03, 0x04, 0x04, 0x03, 0x02, 0x03, 0x03, 0x02, 0x00, 0x02, 0x01, 0x00, 
  0xff, 0x00, 0x00, 0xff, 0x00, 0xff, 0x01, 0xff, 0xfe, 0xfe, 0x03, 0xff, 
  0xfe, 0xff, 0x02, 0x00, 0xff, 0x00, 0x02, 0xff, 0xff, 0x00, 0x01, 0x00, 
  0xff, 0x00, 0x01, 0x00, 0xff, 0x00, 0x01, 0x00, 0x00, 0x00, 0x01, 0x00, 
  0x00, 0x00, 0x02, 0x00, 0x00, 0xff, 0x02, 0x00, 0xff, 0x00, 0x01, 0xff, 
  0xfe, 0xff, 0x00, 0xfe, 0x00, 0xff, 0xff, 0x00, 0xfe, 0xff, 0x03, 0x00, 
  0x00, 0x00, 0x04, 0x00, 0x04, 0x01, 0x0a, 0x01, 0x04, 0x02, 0x05, 0x02, 
  0x03, 0x02, 0x04, 0x01, 0x03, 0x02, 0x03, 0x02, 0x01, 0x02, 0x01, 0x01, 
  0x00, 0x01, 0x01, 0x01, 0xfd, 0x01, 0x00, 0x01, 0xfe, 0x01, 0x00, 0x00, 
  0xff, 0xff, 0xff, 0x00, 0xfe, 0x01, 0xfc, 0xff, 0xfb, 0xff, 0xf3, 0xff, 
  0xf7, 0xfe, 0xee, 0xfc, 0xf6, 0xfd, 0xfa, 0xfe, 0x00, 0xfe, 0xff, 0xff, 
  0x01, 0xff, 0xfe, 0xff, 0xff, 0x00, 0xf7, 0xff, 0xfe, 0xff, 0xf3, 0xfe, 
  0xfb, 0xff, 0xf7, 0xfe, 0xfc, 0xfd, 0xff, 0xff, 0xfe, 0xff, 0xfe, 0xff, 
  0xfe, 0xfe, 0xfd, 0xff, 0xff, 0xfe, 0xfe, 0xfe, 0xff, 0xff, 0xff, 0xff, 
  0x00, 0x00, 0x01, 0x00, 0x00, 0x00, 0xfe, 0x00, 0xfe, 0x00, 0xfc, 0xfe, 
  0xfd, 0xfe, 0xfd, 0xff, 0xfe, 0xfe, 0x02, 0xfe, 0xf4, 0xfb, 0x01, 0xf9, 
  0xf7, 0xfd, 0x00, 0x03, 0xfa, 0xdc, 0x1a, 0xe7, 0x2d, 0xe5, 0xfb, 0x01, 
  0x0a, 0xe2, 0x02, 0x0a, 0x00, 0xf1, 0x01, 0x0a, 0x03, 0xfa, 0x02, 0x04, 
  0xff, 0xfb, 0x00, 0x02, 0xff, 0xfd, 0xfe, 0x02, 0x00, 0x00, 0xff, 0x06, 
  0x01, 0x01, 0x03, 0x08, 0x01, 0xfe, 0x01, 0xff, 0xfe, 0xfb, 0x00, 0x01, 
  0xff, 0xfd, 0xfd, 0x03, 0x01, 0xff, 0xff, 0x02, 0xff, 0xfe, 0x00, 0xfe, 
  0xff, 0x00, 0xfe, 0x05, 0x00, 0x04, 0x01, 0x08, 0x04, 0x02, 0x04, 0x05, 
  0x03, 0x00, 0x03, 0x01, 0x01, 0x00, 0x01, 0x00, 0x00, 0x00, 0xff, 0xff, 
  0xff, 0xfe, 0xfe, 0x02, 0xfe, 0xff, 0xfe, 0x03, 0xff, 0xff, 0xff, 0x03, 
  0xff, 0x00, 0xff, 0x03, 0x00, 0xff, 0xff, 0x02, 0xff, 0xfe, 0x00, 0x01, 
  0x00, 0xff, 0x00, 0xff, 0x01, 0x00, 0x00, 0x02, 0x01, 0x01, 0x01, 0x01, 
  0x00, 0xff, 0x01, 0x00, 0xff, 0xff, 0xfe, 0x02, 0x00, 0x02, 0xfe, 0x01, 
  0xfe, 0xff, 0xfd, 0x02, 0xfe, 0x02, 0xff, 0x08, 0xff, 0x06, 0x00, 0x0c, 
  0x01, 0x04, 0x01, 0x04, 0x02, 0x03, 0x02, 0x02, 0x00, 0x01, 0x02, 0x01, 
  0x00, 0x01, 0x01, 0xff, 0x01, 0x02, 0xfe, 0x02, 0x02, 0x01, 0x02, 0x02, 
  0x01, 0xff, 0x02, 0xfe, 0x00, 0xff, 0x00, 0xfb, 0x00, 0xff, 0xff, 0xfb, 
  0xfe, 0xfc, 0xff, 0xf2, 0xfe, 0xfa, 0xfe, 0xea, 0xff, 0xf5, 0xfe, 0xf7, 
  0xff, 0x01, 0xfe, 0x01, 0x00, 0x01, 0x01, 0xfb, 0xff, 0xfe, 0xff, 0xf3, 
  0xfe, 0xfe, 0xfd, 0xf1, 0xfd, 0xfb, 0xfe, 0xf6, 0xff, 0xfa, 0xfe, 0xfd, 
  0xfd, 0xfe, 0xfe, 0xfe, 0xfe, 0xfe, 0xff, 0xfe, 0xff, 0xff, 0xff, 0xff, 
  0xff, 0xff, 0xff, 0xff, 0xff, 0xff, 0xff, 0xfe, 0xff, 0xff, 0xfe, 0xfe, 
  0xfe, 0xff, 0xfe, 0xff, 0xfe, 0xfe, 0xfe, 0xfe, 0xff, 0xfe, 0xfe, 0x00, 
  0xfe, 0xf5, 0xfa, 0x01, 0x00, 0xfb, 0xff, 0xfd, 0x0f, 0x0c, 0xf2, 0xf4, 
  0xdf, 0x29, 0x04, 0x16, 0x05, 0xff, 0xe9, 0x04, 0x05, 0x07, 0xf7, 0x02, 
  0x04, 0x02, 0xfd, 0x04, 0x03, 0x00, 0xfc, 0xff, 0x01, 0xfd, 0xfd, 0xff, 
  0x02, 0xff, 0x00, 0x00, 0x06, 0x02, 0x02, 0x03, 0x06, 0x01, 0xfe, 0x02, 
  0xfe, 0xff, 0xfd, 0xff, 0x00, 0x00, 0xfe, 0xff, 0x01, 0x01, 0xfe, 0x01, 
  0xff, 0x00, 0xfd, 0x00, 0xfc, 0xff, 0xff, 0xff, 0x02, 0x01, 0x03, 0x01, 
  0x07, 0x05, 0x04, 0x04, 0x05, 0x04, 0x01, 0x04, 0x02, 0x02, 0x01, 0x01, 
  0x00, 0x00, 0xff, 0x00, 0xfe, 0xff, 0xfd, 0xfe, 0xff, 0xff, 0xff, 0xff, 
  0x01, 0xff, 0xff, 0x00, 0x02, 0x00, 0x01, 0x00, 0x03, 0x00, 0x00, 0x00, 
  0x02, 0xff, 0xff, 0x00, 0x00, 0xff, 0xff, 0xff, 0x00, 0x00, 0xff, 0x00, 
  0x01, 0x00, 0x01, 0x01, 0x01, 0x00, 0x00, 0x00, 0x01, 0xff, 0x00, 0xff, 
  0x03, 0x00, 0x00, 0x00, 0xfe, 0xfd, 0xff, 0xfc, 0x03, 0xfd, 0x02, 0x01, 
  0x0b, 0xff, 0x09, 0xfe, 0x0b, 0x02, 0x04, 0x01, 0x03, 0x01, 0x02, 0x00, 
  0x03, 0xff, 0x01, 0x01, 0x03, 0xff, 0x01, 0x00, 0x03, 0x01, 0x02, 0xff, 
  0x03, 0xff, 0x05, 0x01, 0x02, 0x00, 0x02, 0x00, 0xfa, 0xff, 0x01, 0xff, 
  0xfc, 0xff, 0xff, 0xfe, 0x01, 0xff, 0xf9, 0x00, 0xf3, 0xfa, 0xfb, 0xff, 
  0xeb, 0xfe, 0xf7, 0xfb, 0xf8, 0xfe, 0xff, 0xff, 0x01, 0x00, 0x00, 0x01, 
  0xfa, 0x00, 0xfe, 0xff, 0xf3, 0xfc, 0xfd, 0xfe, 0xf1, 0x00, 0xf9, 0xff, 
  0xf6, 0xfd, 0xf9, 0xfe, 0xf9, 0xfd, 0xff, 0xfd, 0xfe, 0xff, 0xff, 0xff, 
  0xff, 0xff, 0xff, 0xff, 0xff, 0xff, 0xff, 0xff, 0xff, 0xff, 0xff, 0xff, 
  0xfd, 0xfe, 0xff, 0xfd, 0xfd, 0xfd, 0xfe, 0xfd, 0x00, 0xfe, 0xfe, 0xfe, 
  0xfe, 0xff, 0xff, 0xfe, 0xfe, 0x00, 0xf8, 0x07, 0x01, 0xfd, 0x05, 0x01, 
  0xf8, 0x13, 0x11, 0x06, 0xf7, 0xcb, 0x00, 0xf9, 0x1f, 0x18, 0x0d, 0x04, 
  0xfd, 0xf5, 0x02, 0x00, 0xfc, 0x00, 0x05, 0x00, 0x03, 0x00, 0xfe, 0x00, 
  0x01, 0x00, 0xff, 0xff, 0xff, 0x01, 0xff, 0x00, 0x00, 0x03, 0x01, 0x01, 
  0x01, 0x00, 0x00, 0x00, 0x01, 0x00, 0x00, 0xff, 0xfe, 0x00, 0x02, 0x00, 
  0x00, 0xfe, 0x00, 0xfd, 0x00, 0xff, 0xff, 0xfd, 0xff, 0xfd, 0xff, 0xff, 
  0x01, 0x02, 0x02, 0x03, 0x02, 0x04, 0x04, 0x04, 0x04, 0x05, 0x03, 0x02, 
  0x03, 0x03, 0x02, 0x02, 0x02, 0x02, 0x00, 0xff, 0x01, 0xfe, 0xff, 0xfd, 
  0xff, 0xfe, 0xff, 0xfe, 0x00, 0x01, 0x01, 0x00, 0x01, 0xff, 0x01, 0x01, 
  0x01, 0x01, 0x00, 0x00, 0x00, 0x02, 0x01, 0x00, 0x00, 0x00, 0xff, 0xff, 
  0xff, 0x00, 0x00, 0xff, 0x00, 0x00, 0x00, 0xff, 0x00, 0x03, 0x00, 0x00, 
  0x00, 0x01, 0x00, 0x01, 0x00, 0x03, 0x00, 0xfe, 0x01, 0xff, 0xff, 0xfd, 
  0xfe, 0x03, 0xfa, 0x03, 0xff, 0x0b, 0x00, 0x0c, 0xfd, 0x06, 0x02, 0x03, 
  0x02, 0x02, 0x01, 0x01, 0x00, 0x03, 0x00, 0x02, 0x00, 0x04, 0x00, 0x00, 
  0x01, 0x06, 0x01, 0x01, 0x00, 0x04, 0xfd, 0x04, 0x01, 0x02, 0xff, 0x02, 
  0xff, 0xf9, 0xfd, 0x01, 0xfe, 0xfe, 0xff, 0xfd, 0xfd, 0x04, 0xff, 0xf8, 
  0xfe, 0xf7, 0xf8, 0xfc, 0xff, 0xee, 0xfe, 0xf9, 0xfa, 0xf8, 0xfd, 0xff, 
  0xfe, 0x00, 0xff, 0x00, 0xff, 0xfd, 0x01, 0xfe, 0xff, 0xf7, 0xfb, 0xfd, 
  0xfe, 0xf3, 0x00, 0xf7, 0x00, 0xf7, 0xfc, 0xf9, 0xfe, 0xf9, 0xfe, 0x00, 
  0xfe, 0xfe, 0xff, 0xff, 0xff, 0xff, 0x00, 0x00, 0xff, 0xff, 0xff, 0xff, 
  0xff, 0xff, 0xff, 0xff, 0xff, 0xfe, 0xfe, 0xfe, 0xfe, 0xfc, 0xfd, 0xfd, 
  0xfd, 0xfe, 0xfe, 0xfe, 0xfe, 0xfd, 0xff, 0xff, 0xfe, 0xfe, 0x01, 0xf8, 
  0x09, 0xff, 0xfb, 0x08, 0x04, 0xf8, 0xf3, 0x14, 0x0b, 0x0d, 0xfc, 0xf4, 
  0xe4, 0x0f, 0x02, 0x12, 0x1f, 0x03, 0xf9, 0xf2, 0x00, 0x00, 0x02, 0x01, 
  0x02, 0x01, 0x00, 0x00, 0x01, 0x02, 0x00, 0xff, 0x00, 0x00, 0x01, 0x01, 
  0x01, 0x00, 0x01, 0xff, 0x00, 0x00, 0xfe, 0xff, 0x00, 0x00, 0x02, 0x00, 
  0x01, 0xff, 0x00, 0x00, 0xff, 0xff, 0xfe, 0xff, 0xfe, 0x00, 0xfe, 0xfe, 
  0xff, 0xff, 0xff, 0x00, 0xff, 0x02, 0x02, 0x02, 0x01, 0x03, 0x04, 0x03, 
  0x03, 0x04, 0x05, 0x03, 0x02, 0x03, 0x03, 0x02, 0x02, 0x02, 0x03, 0x00, 
  0x01, 0x00, 0x00, 0xff, 0xfe, 0x00, 0x00, 0x00, 0xfe, 0x00, 0xff, 0x01, 
  0x00, 0x01, 0xfe, 0x01, 0x01, 0x01, 0x01, 0x01, 0x00, 0x01, 0x00, 0x01, 
  0x00, 0x00, 0xff, 0x00, 0x00, 0x00, 0xff, 0xff, 0x00, 0x00, 0x00, 0x00, 
  0x01, 0xff, 0x02, 0xff, 0x01, 0xff, 0x01, 0xff, 0x00, 0x01, 0x03, 0x02, 
  0xfe, 0x00, 0x00, 0xfc, 0xfe, 0xff, 0x02, 0xff, 0x03, 0xfe, 0x0b, 0xff, 
  0x02, 0x03, 0x04, 0x03, 0x03, 0x02, 0x02, 0x01, 0x01, 0x00, 0x02, 0x01, 
  0x02, 0x00, 0x01, 0x01, 0xff, 0x00, 0x02, 0x01, 0x00, 0x01, 0x02, 0xfe, 
  0xff, 0x00, 0xff, 0xff, 0x03, 0xff, 0xfb, 0xfe, 0x00, 0xfe, 0xfc, 0x00, 
  0xfd, 0xff, 0xfb, 0xff, 0xfa, 0xfe, 0xf3, 0xfe, 0xfc, 0xff, 0xee, 0xfd, 
  0xf8, 0xfc, 0xf7, 0xfd, 0xfe, 0xfe, 0xff, 0xff, 0x00, 0x00, 0xfe, 0x01, 
  0xfe, 0x00, 0xf7, 0xfe, 0xfe, 0xff, 0xf3, 0x00, 0xf9, 0xff, 0xf5, 0xfe, 
  0xf8, 0xfe, 0xf9, 0xfe, 0xff, 0xfe, 0xff, 0xff, 0xff, 0xff, 0xff, 0x00, 
  0xff, 0xff, 0xff, 0xff, 0xff, 0xff, 0xff, 0xff, 0xff, 0xff, 0xfe, 0xfe, 
  0xfe, 0xfe, 0xfb, 0xfd, 0xfd, 0xfd, 0xfd, 0xfe, 0xfe, 0xfe, 0xfe, 0xfe, 
  0xff, 0xfe, 0xff, 0x00, 0xf4, 0x0e, 0xfd, 0xfd, 0x02, 0x06, 0x03, 0xd7, 
  0x0b, 0xff, 0x0f, 0x39, 0xf3, 0xf5, 0x09, 0xde, 0x05, 0x17, 0x06, 0x07, 
  0x01, 0x02, 0xfc, 0xff, 0xff, 0x05, 0x00, 0xfe, 0x01, 0x00, 0x01, 0x02, 
  0x00, 0x02, 0x02, 0xff, 0x01, 0xff, 0xff, 0x00, 0x00, 0x02, 0xff, 0xff, 
  0xff, 0x00, 0xfe, 0x02, 0xff, 0x00, 0x02, 0x00, 0xff, 0xfe, 0xfd, 0xfe, 
  0xff, 0xff, 0xfe, 0xfe, 0xfe, 0x00, 0xff, 0x00, 0x01, 0x02, 0x00, 0x02, 
  0x01, 0x01, 0x03, 0x03, 0x03, 0x02, 0x04, 0x04, 0x02, 0x02, 0x04, 0x04, 
  0x02, 0x02, 0x02, 0x03, 0x01, 0x02, 0xff, 0x00, 0xff, 0x00, 0xff, 0x00, 
  0x00, 0x01, 0xfe, 0xfe, 0x01, 0x01, 0x01, 0xfd, 0x02, 0x01, 0x02, 0x00, 
  0x01, 0x01, 0x02, 0xff, 0x01, 0x01, 0x00, 0xff, 0x00, 0x01, 0x00, 0xff, 
  0xff, 0x01, 0x00, 0x00, 0x00, 0x01, 0xff, 0xff, 0xfe, 0x02, 0xfe, 0x03, 
  0xfe, 0x03, 0x00, 0x02, 0xff, 0x02, 0xfc, 0x04, 0xfc, 0x00, 0xfe, 0x02, 
  0x01, 0x01, 0xfc, 0x08, 0x01, 0x03, 0x05, 0x02, 0x02, 0x04, 0x00, 0x01, 
  0x01, 0x01, 0x01, 0x03, 0x01, 0x01, 0x02, 0xfe, 0x00, 0xfd, 0x00, 0xfe, 
  0x01, 0x00, 0x02, 0x03, 0x02, 0x03, 0xff, 0xfc, 0xff, 0x01, 0x01, 0xf9, 
  0xfe, 0x00, 0xfd, 0xfb, 0xff, 0xff, 0x01, 0xf8, 0xfd, 0xfa, 0xff, 0xf3, 
  0x00, 0xfa, 0xfd, 0xf0, 0xf9, 0xf8, 0xfd, 0xf7, 0xfd, 0xfe, 0xfe, 0x00, 
  0xff, 0x00, 0x01, 0xfe, 0x00, 0xfd, 0x00, 0xf5, 0xff, 0xfe, 0xfe, 0xf3, 
  0xff, 0xfb, 0xff, 0xf3, 0xff, 0xf9, 0xfe, 0xf9, 0xfe, 0xff, 0xfe, 0xfe, 
  0xfe, 0x00, 0xff, 0xff, 0xff, 0x00, 0xff, 0x00, 0xff, 0xff, 0x00, 0xff, 
  0xff, 0xfe, 0xff, 0xfc, 0xfe, 0xfe, 0xfe, 0xfb, 0xfd, 0xfe, 0xfc, 0xfd, 
  0xfe, 0xfe, 0xfe, 0xfe, 0xff, 0xff, 0xff, 0xff, 0x00, 0xf5, 0x0a, 0xfc, 
  0x04, 0x01, 0x04, 0x0b, 0xe1, 0xfd, 0xf2, 0x0f, 0x4a, 0x11, 0x01, 0xff, 
  0xdb, 0x10, 0xf8, 0xfd, 0x00, 0x03, 0x06, 0xfe, 0xff, 0xff, 0x02, 0x01, 
  0x00, 0x03, 0x01, 0xff, 0xfe, 0x00, 0x01, 0x01, 0x01, 0x01, 0x01, 0x01, 
  0xff, 0x01, 0x00, 0xff, 0x02, 0xff, 0x02, 0x00, 0x00, 0xff, 0x00, 0xff, 
  0x00, 0xfe, 0xfe, 0xfe, 0x00, 0xff, 0xff, 0xfd, 0x00, 0xff, 0xfd, 0xff, 
  0x02, 0x00, 0x02, 0x00, 0x01, 0x02, 0x03, 0x01, 0x01, 0x03, 0x02, 0x03, 
  0x04, 0x02, 0x02, 0x05, 0x04, 0x02, 0x02, 0x02, 0x02, 0x02, 0x02, 0x00, 
  0xff, 0xff, 0x02, 0xfe, 0xfe, 0xff, 0x02, 0xff, 0xfe, 0x00, 0x00, 0x01, 
  0x00, 0x01, 0x01, 0x01, 0x00, 0x01, 0x01, 0x02, 0x00, 0x01, 0x01, 0x00, 
  0xfe, 0x00, 0x00, 0x00, 0x00, 0xff, 0x01, 0x00, 0x00, 0x00, 0x00, 0xfe, 
  0xff, 0xfe, 0x02, 0x00, 0x01, 0x00, 0x02, 0xff, 0x00, 0xff, 0x03, 0x01, 
  0x02, 0xff, 0xfe, 0xfe, 0x03, 0xff, 0xfe, 0xfa, 0x07, 0x01, 0x07, 0x03, 
  0x04, 0x01, 0x01, 0x02, 0x01, 0x01, 0x01, 0x01, 0x03, 0x01, 0x00, 0x01, 
  0xfd, 0x00, 0xfc, 0xff, 0xfc, 0x00, 0x00, 0x00, 0x07, 0x02, 0x00, 0xff, 
  0xfd, 0xfe, 0xfe, 0x00, 0xfc, 0xff, 0x00, 0x00, 0xfc, 0xfe, 0xfb, 0x00, 
  0xfc, 0xfe, 0xf9, 0x00, 0xef, 0x01, 0xf8, 0xfb, 0xf0, 0xfa, 0xf7, 0xfd, 
  0xf8, 0xff, 0xfe, 0xfe, 0x00, 0xff, 0xfe, 0x01, 0xff, 0x00, 0xfa, 0x00, 
  0xf8, 0xff, 0xfc, 0xfd, 0xf4, 0xfe, 0xfc, 0x00, 0xf2, 0x01, 0xf9, 0xff, 
  0xfa, 0xfe, 0xfe, 0xfd, 0xfe, 0xfe, 0xff, 0xff, 0x00, 0xff, 0xff, 0xff, 
  0x00, 0xff, 0xfe, 0xff, 0xfe, 0x00, 0xff, 0xff, 0xfb, 0xfe, 0xfe, 0xfd, 
  0xfb, 0xfd, 0xff, 0xfc, 0xfe, 0xff, 0xfe, 0xfe, 0xff, 0xff, 0xfe, 0x00, 
  0xfe, 0x00, 0xf5, 0x00, 0xff, 0x04, 0x03, 0xff, 0x0c, 0x0d, 0xfd, 0xe8, 
  0x0a, 0x2a, 0x16, 0x0c, 0xfd, 0xe1, 0x0a, 0xea, 0x0b, 0xfd, 0xf9, 0x06, 
  0x00, 0x02, 0x03, 0x00, 0x01, 0x02, 0x01, 0x02, 0x02, 0xff, 0x01, 0x00, 
  0xfe, 0x00, 0x00, 0x00, 0x01, 0x01, 0x01, 0x02, 0x00, 0x00, 0xff, 0xfe, 
  0xff, 0x00, 0x01, 0x00, 0x00, 0xff, 0xff, 0xff, 0xff, 0xff, 0xff, 0xfe, 
  0xfd, 0x00, 0x00, 0xfe, 0x00, 0x01, 0x00, 0x01, 0x02, 0x01, 0x00, 0x01, 
  0x02, 0x02, 0x02, 0x03, 0x01, 0x04, 0x03, 0x04, 0x03, 0x05, 0x02, 0x03, 
  0x03, 0x03, 0x01, 0x01, 0x00, 0x00, 0xff, 0x02, 0xfe, 0xfe, 0xff, 0x01, 
  0x00, 0xff, 0xff, 0xff, 0x01, 0x03, 0x00, 0x01, 0xff, 0x01, 0x01, 0x02, 
  0x01, 0xff, 0x01, 0x00, 0x02, 0xff, 0x00, 0x00, 0x00, 0xff, 0xff, 0x01, 
  0xff, 0x01, 0x00, 0x00, 0x00, 0x00, 0xff, 0x00, 0x01, 0x00, 0x01, 0x00, 
  0xff, 0xff, 0x01, 0x00, 0x00, 0x01, 0xfd, 0xff, 0xfe, 0x05, 0x01, 0x00, 
  0xff, 0x06, 0x00, 0x01, 0x00, 0x05, 0x00, 0x02, 0x03, 0x03, 0x01, 0x02, 
  0x02, 0x00, 0x01, 0xff, 0xff, 0xfd, 0xff, 0xfe, 0xff, 0xfb, 0xfe, 0x00, 
  0xff, 0x07, 0xff, 0xfc, 0xff, 0xfe, 0xfe, 0xfe, 0x00, 0xfc, 0xff, 0xfe, 
  0x01, 0xfa, 0xfd, 0xfc, 0xfd, 0xfb, 0x01, 0xfa, 0x00, 0xee, 0x03, 0xf6, 
  0xfc, 0xef, 0xfc, 0xf5, 0xfd, 0xf8, 0xff, 0xfe, 0xff, 0xff, 0xff, 0xfe, 
  0x00, 0xfe, 0x00, 0xf9, 0x00, 0xf9, 0x01, 0xfc, 0xfe, 0xf2, 0xff, 0xfc, 
  0xff, 0xf2, 0x01, 0xfa, 0xff, 0xfa, 0xfe, 0xfe, 0xfd, 0xff, 0xfe, 0xfe, 
  0xff, 0xff, 0xff, 0xff, 0x00, 0xff, 0xff, 0xff, 0xff, 0xfe, 0xff, 0xff, 
  0xff, 0xfd, 0xfe, 0xff, 0xfd, 0xfd, 0xfe, 0xff, 0xfd, 0xff, 0xff, 0xfe, 
  0xff, 0xff, 0xff, 0xff, 0xff, 0xfe, 0x00, 0xf7, 0xf5, 0x02, 0x00, 0x04, 
  0xfd, 0x07, 0x28, 0xff, 0xf1, 0xf4, 0xfa, 0x13, 0x06, 0x09, 0xf7, 0xf6, 
  0xe7, 0x0e, 0x10, 0x08, 0x01, 0xfc, 0x04, 0x01, 0x01, 0xff, 0x02, 0x01, 
  0x01, 0x02, 0x02, 0x01, 0x03, 0x01, 0xfd, 0xff, 0xfd, 0xfe, 0x01, 0x00, 
  0x01, 0x01, 0x03, 0x02, 0x00, 0x02, 0xfe, 0xff, 0xfd, 0x00, 0xfe, 0xfe, 
  0xfe, 0x01, 0x02, 0x00, 0x00, 0x00, 0xfe, 0xff, 0xfe, 0xff, 0x01, 0x00, 
  0xff, 0x01, 0x03, 0x02, 0x00, 0x03, 0x02, 0x02, 0x02, 0x02, 0x04, 0x02, 
  0x02, 0x03, 0x07, 0x03, 0x02, 0x02, 0x05, 0x01, 0x00, 0x02, 0x01, 0xff, 
  0xfe, 0xff, 0x00, 0xff, 0x00, 0x00, 0x00, 0xff, 0xff, 0x01, 0x02, 0x00, 
  0x00, 0xff, 0x02, 0x01, 0x02, 0x01, 0x02, 0x01, 0xff, 0x02, 0xff, 0x00, 
  0x00, 0xff, 0xff, 0xff, 0x00, 0xfe, 0x02, 0x00, 0xff, 0x01, 0x01, 0x00, 
  0xfe, 0x01, 0xff, 0x01, 0x00, 0x00, 0xfe, 0x02, 0x00, 0x01, 0x00, 0xff, 
  0x00, 0xfe, 0x02, 0x02, 0xff, 0x03, 0x03, 0x00, 0x00, 0x00, 0x03, 0x00, 
  0x03, 0x01, 0x02, 0x01, 0x00, 0x01, 0x00, 0x00, 0xfe, 0xff, 0xfe, 0xff, 
  0xff, 0xff, 0xfc, 0xfe, 0xfc, 0xfe, 0x00, 0xff, 0xff, 0xff, 0xfd, 0xff, 
  0xfe, 0x00, 0xfe, 0xff, 0xfc, 0xff, 0xfb, 0xfe, 0xfe, 0xfe, 0xf9, 0x01, 
  0xf7, 0x00, 0xf0, 0x02, 0xf6, 0xfe, 0xf0, 0xfc, 0xf8, 0xfe, 0xf7, 0x00, 
  0xfd, 0x00, 0xfd, 0x00, 0xfe, 0x00, 0xfc, 0xff, 0xfc, 0x00, 0xf7, 0x01, 
  0xfb, 0x00, 0xf1, 0x01, 0xfb, 0xff, 0xf5, 0x00, 0xfa, 0xfe, 0xfa, 0xff, 
  0xfe, 0xfe, 0xff, 0xfe, 0xff, 0xfe, 0xfe, 0xff, 0xff, 0xff, 0xfe, 0xff, 
  0xff, 0xff, 0xfe, 0xff, 0xff, 0xfe, 0xfe, 0xfe, 0xff, 0xfe, 0xfe, 0xfe, 
  0x00, 0xfe, 0xff, 0xff, 0xff, 0xff, 0xff, 0xff, 0xff, 0x00, 0xfd, 0x01, 
  0xfa, 0xef, 0x01, 0xff, 0x02, 0xfe, 0x03, 0x26, 0x13, 0xf1, 0xfe, 0xc2, 
  0x05, 0x03, 0x07, 0x18, 0xfc, 0xec, 0x05, 0x04, 0x0c, 0x0a, 0xfb, 0x04, 
  0xfe, 0xff, 0xff, 0x02, 0x01, 0xff, 0x01, 0x02, 0x02, 0x05, 0x02, 0x01, 
  0x01, 0x00, 0xfe, 0xff, 0xff, 0xfc, 0x00, 0x04, 0x02, 0x01, 0x03, 0xfe, 
  0x01, 0x01, 0x00, 0xfc, 0xfe, 0xfd, 0xfe, 0x00, 0x01, 0x01, 0x00, 0x00, 
  0x00, 0x00, 0x00, 0x01, 0xff, 0xfe, 0x01, 0x02, 0x02, 0x00, 0x03, 0x02, 
  0x02, 0x03, 0x02, 0x04, 0x02, 0x02, 0x02, 0x08, 0x03, 0x00, 0x02, 0x07, 
  0x02, 0x01, 0x02, 0x01, 0xff, 0xfe, 0x00, 0xff, 0xff, 0xff, 0xfe, 0xff, 
  0xff, 0x00, 0xff, 0x01, 0x00, 0x00, 0xff, 0x04, 0x01, 0x01, 0x01, 0x03, 
  0x01, 0xff, 0x01, 0x00, 0x00, 0xff, 0x00, 0xff, 0x01, 0xff, 0xff, 0x02, 
  0x00, 0xfe, 0x01, 0x00, 0x01, 0xfe, 0x00, 0xff, 0x01, 0xff, 0x02, 0xfe, 
  0x01, 0x00, 0x00, 0x00, 0x02, 0x01, 0xfe, 0x03, 0xfe, 0x01, 0x03, 0x00, 
  0x01, 0x01, 0xfd, 0x03, 0x00, 0x02, 0x01, 0x02, 0x01, 0x01, 0x02, 0xff, 
  0x00, 0xfe, 0x00, 0xfd, 0xfe, 0xfe, 0xfe, 0xfd, 0xfd, 0xfc, 0xfe, 0xfe, 
  0xfe, 0xff, 0xff, 0xfc, 0xff, 0xfe, 0xfe, 0xfd, 0xfe, 0xfe, 0xff, 0xfd, 
  0x00, 0xff, 0xfd, 0xfc, 0x00, 0xf5, 0xfe, 0xf3, 0xfa, 0xfa, 0x00, 0xee, 
  0xfd, 0xfb, 0xfd, 0xf8, 0xfd, 0xfd, 0x00, 0xfe, 0xfe, 0xff, 0xfe, 0xfc, 
  0x01, 0xfe, 0x01, 0xf8, 0x00, 0xfb, 0x01, 0xf1, 0x00, 0xfb, 0xfe, 0xf8, 
  0xfd, 0xfc, 0xfe, 0xfb, 0xff, 0xff, 0xfe, 0xfe, 0xfe, 0xff, 0xfe, 0xfe, 
  0xfe, 0xfe, 0xfe, 0xff, 0xff, 0xff, 0xff, 0xff, 0xfe, 0xff, 0xfe, 0xff, 
  0xfe, 0xfe, 0xff, 0xff, 0xfe, 0xff, 0xff, 0x00, 0x00, 0xff, 0xff, 0xff, 
  0x00, 0x00, 0x00, 0xfe, 0x01, 0xfb, 0xf8, 0x00, 0xff, 0x02, 0x00, 0x02, 
  0x06, 0x27, 0xf0, 0x0d, 0xba, 0xed, 0x02, 0x02, 0x22, 0x0e, 0xfa, 0xfd, 
  0xef, 0x01, 0x10, 0xfe, 0x06, 0x01, 0xff, 0xff, 0x04, 0x00, 0xff, 0xff, 
  0x02, 0x01, 0x03, 0x02, 0x02, 0x01, 0x01, 0x02, 0x01, 0x00, 0xfe, 0xfe, 
  0xfe, 0xfe, 0xfd, 0x01, 0x02, 0x01, 0x04, 0x01, 0xff, 0x02, 0x01, 0xfe, 
  0xfe, 0xfe, 0xfe, 0xfe, 0x01, 0x01, 0x01, 0x00, 0x02, 0x01, 0x01, 0x01, 
  0x00, 0x00, 0x01, 0x00, 0x01, 0x01, 0x01, 0x02, 0x05, 0x02, 0x03, 0x02, 
  0x06, 0x03, 0x02, 0x02, 0x05, 0x01, 0x00, 0x00, 0x01, 0x00, 0x01, 0xff, 
  0xff, 0xfd, 0x00, 0xff, 0xff, 0xff, 0x00, 0xfe, 0x00, 0xff, 0x01, 0x01, 
  0x04, 0x01, 0x01, 0x01, 0x03, 0x01, 0x00, 0x00, 0x01, 0x00, 0xff, 0xff, 
  0x00, 0x01, 0xff, 0x01, 0xff, 0x00, 0xff, 0x01, 0x01, 0x00, 0x00, 0x00, 
  0x01, 0x01, 0xfe, 0x01, 0x02, 0xff, 0x01, 0xff, 0x00, 0x01, 0x00, 0x00, 
  0x05, 0xfc, 0x05, 0xfd, 0x01, 0x01, 0x03, 0xfb, 0x03, 0xff, 0x03, 0x01, 
  0x04, 0x02, 0x01, 0x01, 0xfe, 0xff, 0xfd, 0xff, 0xfc, 0xfd, 0xfd, 0xfd, 
  0xfc, 0xfc, 0xfe, 0xfd, 0xfc, 0xfd, 0xff, 0xfd, 0xfc, 0xfd, 0xff, 0xfd, 
  0xfe, 0xff, 0xfe, 0xff, 0xfe, 0xff, 0xfc, 0xfd, 0x00, 0xfe, 0xf7, 0xfd, 
  0xf5, 0xf4, 0xff, 0xff, 0xec, 0x00, 0xfb, 0xfa, 0xf9, 0xfd, 0x00, 0xfc, 
  0xfe, 0xfe, 0x00, 0xfd, 0xfd, 0x00, 0xfe, 0x00, 0xfd, 0xfe, 0xfa, 0x00, 
  0xf5, 0xfd, 0xfc, 0xfe, 0xf8, 0xfb, 0xfe, 0xfe, 0xfd, 0xff, 0xff, 0xfe, 
  0xfd, 0xfe, 0xfe, 0xfe, 0xfe, 0xfe, 0xfe, 0xfe, 0xfe, 0xff, 0xfe, 0xfe, 
  0xff, 0xfe, 0xff, 0xfe, 0x00, 0xfe, 0xfe, 0xff, 0x01, 0xff, 0xff, 0x01, 
  0x01, 0x00, 0x00, 0x00, 0xff, 0x00, 0x00, 0x00, 0xfe, 0x00, 0xfb, 0x03, 
  0xff, 0xfd, 0x02, 0x02, 0x03, 0xe8, 0x23, 0xfe, 0x08, 0xe3, 0xfa, 0xf2, 
  0xff, 0x12, 0x11, 0x07, 0xfe, 0xe8, 0xf9, 0x09, 0x01, 0x0a, 0x02, 0x02, 
  0x01, 0x06, 0xff, 0xff, 0xfe, 0x03, 0x00, 0xfe, 0x02, 0x05, 0x02, 0x02, 
  0x01, 0x02, 0x01, 0x00, 0x01, 0xfc, 0xfe, 0xfd, 0xfb, 0x00, 0x01, 0xff, 
  0x00, 0x03, 0x03, 0x03, 0x00, 0xff, 0xff, 0x00, 0xff, 0x00, 0xfe, 0xfe, 
  0x00, 0x01, 0x01, 0xff, 0x01, 0x02, 0x02, 0x02, 0x00, 0x01, 0x01, 0x02, 
  0x01, 0x04, 0x01, 0x01, 0x02, 0x05, 0x01, 0x02, 0x03, 0x03, 0x02, 0x01, 
  0x02, 0x01, 0x00, 0x00, 0xff, 0x00, 0xff, 0x00, 0x00, 0x00, 0x00, 0xff, 
  0x00, 0x02, 0xff, 0x01, 0x01, 0x05, 0x01, 0x00, 0x01, 0x04, 0x01, 0x00, 
  0x00, 0x00, 0x00, 0x00, 0xff, 0x01, 0x00, 0x00, 0x01, 0x00, 0xff, 0x00, 
  0x00, 0x01, 0xff, 0x00, 0x01, 0x00, 0x00, 0xfe, 0x00, 0x02, 0x01, 0x02, 
  0x00, 0xfc, 0x00, 0xff, 0x00, 0x03, 0xff, 0x02, 0xfe, 0x03, 0x00, 0x01, 
  0xff, 0x05, 0x00, 0x02, 0x00, 0x04, 0x02, 0x02, 0x00, 0xff, 0xff, 0xfe, 
  0xfe, 0xfc, 0xfd, 0xfd, 0xfd, 0xfb, 0xfc, 0xfc, 0xfc, 0xfb, 0xfd, 0xff, 
  0xfe, 0xfd, 0xfc, 0xfe, 0xfd, 0xff, 0xfd, 0xfd, 0xff, 0xfd, 0xff, 0x00, 
  0xfe, 0xf9, 0xfe, 0xfa, 0xfd, 0xf0, 0xfb, 0xfc, 0xfd, 0xef, 0xff, 0xf9, 
  0xfd, 0xf9, 0xfe, 0xff, 0xfd, 0xfe, 0xff, 0x00, 0xff, 0xfd, 0xfe, 0xfe, 
  0xff, 0xfc, 0xfe, 0xfd, 0xfe, 0xf6, 0xff, 0xfd, 0x01, 0xf5, 0xff, 0xfc, 
  0xfe, 0xfd, 0xff, 0xfe, 0xff, 0xfe, 0xfe, 0xfd, 0xfe, 0xfe, 0xfe, 0xfe, 
  0xfe, 0xfd, 0xfe, 0xfd, 0xfe, 0xfe, 0xff, 0xff, 0xff, 0x00, 0xff, 0xff, 
  0xff, 0x01, 0x00, 0xff, 0x00, 0x01, 0x00, 0x00, 0x01, 0xfe, 0x00, 0x00, 
  0x00, 0xfd, 0x01, 0xfa, 0x06, 0xff, 0xfe, 0x03, 0x01, 0x01, 0xe7, 0x05, 
  0x1a, 0xfb, 0x06, 0x15, 0xe7, 0xfa, 0xf3, 0x12, 0x05, 0x04, 0xfa, 0xf6, 
  0x00, 0x04, 0x0b, 0x02, 0x07, 0x01, 0x05, 0x00, 0x00, 0xfe, 0x04, 0xff, 
  0xfb, 0x00, 0x05, 0x02, 0x01, 0x03, 0xff, 0x02, 0x01, 0x01, 0xff, 0xfe, 
  0x00, 0xfe, 0x03, 0xfd, 0xf7, 0xff, 0x04, 0x00, 0xfe, 0x01, 0x03, 0x01, 
  0x02, 0x02, 0x00, 0xfe, 0x00, 0xff, 0x00, 0xfe, 0xfc, 0x00, 0x02, 0x00, 
  0xff, 0x00, 0x03, 0x02, 0x03, 0x01, 0x04, 0x00, 0x02, 0x02, 0x05, 0x00, 
  0x00, 0x02, 0x04, 0x02, 0x00, 0x01, 0x02, 0x01, 0x01, 0x01, 0x01, 0x00, 
  0x00, 0x00, 0x00, 0xff, 0xff, 0x00, 0x02, 0x01, 0x00, 0x00, 0x04, 0x01, 
  0x01, 0x02, 0x02, 0x00, 0x00, 0x00, 0x00, 0xff, 0xff, 0x00, 0x01, 0x00, 
  0x00, 0xff, 0x01, 0x00, 0x00, 0x00, 0x00, 0xfe, 0x00, 0x00, 0xff, 0x00, 
  0xfe, 0x01, 0xff, 0x01, 0x01, 0xff, 0x00, 0xfd, 0x01, 0x00, 0x01, 0x01, 
  0x00, 0x01, 0x04, 0xff, 0x01, 0x00, 0x03, 0x01, 0x02, 0x00, 0x04, 0x01, 
  0x01, 0x01, 0x00, 0xff, 0xfe, 0xff, 0xfb, 0xfd, 0xfd, 0xfd, 0xfb, 0xfe, 
  0xfb, 0xfb, 0xfc, 0xfe, 0xfd, 0xff, 0xfe, 0xfd, 0xff, 0xff, 0xfd, 0xfd, 
  0xfb, 0x00, 0xfa, 0x01, 0xfb, 0xfd, 0xfb, 0xff, 0xfc, 0xfd, 0xef, 0xff, 
  0xf9, 0xfe, 0xef, 0xfb, 0xf7, 0xfe, 0xf9, 0x00, 0xfe, 0xfe, 0xfd, 0xff, 
  0xff, 0x00, 0xfe, 0xfe, 0xfa, 0xff, 0xfb, 0xfe, 0xff, 0x00, 0xf4, 0x02, 
  0xfd, 0x00, 0xf6, 0x00, 0xfd, 0xfd, 0xff, 0xff, 0xfd, 0xff, 0xfd, 0xfe, 
  0xfd, 0xfe, 0xfd, 0xfe, 0xfe, 0xfd, 0xfd, 0xfe, 0xfd, 0xff, 0xff, 0xff, 
  0xff, 0x00, 0x00, 0x00, 0x01, 0xff, 0x00, 0x01, 0x00, 0x00, 0x02, 0x01, 
  0x00, 0x01, 0xfe, 0x00, 0x00, 0x00, 0xfd, 0x01, 0xfa, 0x07, 0xff, 0x00, 
  0x03, 0xff, 0xff, 0x02, 0xee, 0x1a, 0x06, 0x15, 0x22, 0xe8, 0x01, 0xd6, 
  0x07, 0x06, 0x03, 0x10, 0x00, 0xfa, 0x04, 0x0a, 0x03, 0x09, 0x00, 0x04, 
  0xff, 0x00, 0x00, 0x07, 0x00, 0xfd, 0xfe, 0x02, 0x01, 0xfe, 0x02, 0x01, 
  0x02, 0x03, 0x00, 0xff, 0xff, 0x00, 0xfe, 0x06, 0x00, 0xfb, 0xfd, 0x01, 
  0xfc, 0xf9, 0x00, 0x05, 0x01, 0x02, 0x03, 0x00, 0x00, 0x00, 0x00, 0xff, 
  0xff, 0xff, 0xff, 0x00, 0xfd, 0xfd, 0x00, 0x04, 0x01, 0x01, 0x01, 0x04, 
  0x01, 0x03, 0x02, 0x04, 0x01, 0x01, 0x01, 0x03, 0x00, 0xfe, 0xff, 0x04, 
  0x00, 0x00, 0x00, 0x03, 0x01, 0x01, 0x01, 0x01, 0x01, 0x01, 0x00, 0x02, 
  0x01, 0x00, 0xff, 0x04, 0x01, 0x01, 0x02, 0x01, 0x00, 0x00, 0x01, 0x00, 
  0x00, 0x01, 0x00, 0x01, 0x00, 0x00, 0xfe, 0x01, 0xff, 0xfe, 0x00, 0x00, 
  0xff, 0xff, 0x00, 0xff, 0x00, 0x00, 0x01, 0xfd, 0x01, 0x00, 0xfd, 0x01, 
  0xfb, 0x05, 0xfe, 0xfd, 0x03, 0x02, 0x00, 0x04, 0x00, 0x03, 0x02, 0x03, 
  0x01, 0x02, 0x00, 0x04, 0x00, 0x00, 0x01, 0xff, 0xff, 0xfe, 0xfe, 0xfc, 
  0xfd, 0xfd, 0xfc, 0xfc, 0xfe, 0xfc, 0xfd, 0xfb, 0xfd, 0xff, 0xfe, 0xfc, 
  0xfe, 0x00, 0x01, 0xfa, 0xff, 0xfc, 0xfe, 0xfb, 0xff, 0xfc, 0xfe, 0xf8, 
  0xff, 0xfa, 0xfc, 0xf2, 0x01, 0xf5, 0x00, 0xf0, 0xfd, 0xf7, 0xfe, 0xf9, 
  0xff, 0xfd, 0x00, 0xfd, 0xff, 0xff, 0x00, 0xfe, 0xff, 0xfc, 0x01, 0xf7, 
  0x01, 0x00, 0x01, 0xf1, 0x01, 0x00, 0x00, 0xf5, 0x01, 0xfd, 0xfd, 0xff, 
  0xff, 0xfc, 0xff, 0xfd, 0xfd, 0xfd, 0xfd, 0xfd, 0xfe, 0xfd, 0xfd, 0xfd, 
  0xfd, 0xfd, 0xfe, 0xff, 0xff, 0x00, 0x00, 0x01, 0x00, 0x01, 0x01, 0x01, 
  0x01, 0x01, 0x00, 0x02, 0x01, 0x01, 0x01, 0xff, 0x00, 0x01, 0x00, 0xfc, 
  0x01, 0xfc, 0x02, 0x00, 0xfe, 0x03, 0xfe, 0x00, 0x1a, 0xf3, 0x00, 0x12, 
  0x1d, 0x16, 0xf9, 0x0a, 0xd8, 0xf3, 0xfd, 0x06, 0x18, 0x09, 0xf6, 0x01, 
  0x09, 0x02, 0x09, 0x03, 0x04, 0xff, 0x02, 0x00, 0x07, 0x01, 0x00, 0x00, 
  0x01, 0xff, 0xfb, 0xff, 0x03, 0x01, 0x02, 0x02, 0x00, 0x02, 0x00, 0xff, 
  0x00, 0x01, 0xff, 0x00, 0x01, 0xfe, 0xfc, 0xfc, 0x03, 0x01, 0xfc, 0xff, 
  0x03, 0x01, 0x01, 0x01, 0xfe, 0x01, 0x00, 0xfe, 0xff, 0xff, 0x01, 0x00, 
  0x02, 0x00, 0xff, 0x01, 0x02, 0x01, 0x01, 0x01, 0x02, 0x01, 0x03, 0x01, 
  0x01, 0x01, 0x01, 0x00, 0x02, 0x00, 0xfe, 0xff, 0x05, 0x02, 0x00, 0x00, 
  0x02, 0x01, 0x02, 0x01, 0x02, 0x02, 0x02, 0x02, 0x01, 0x02, 0x01, 0x02, 
  0x00, 0x00, 0x00, 0x01, 0x00, 0x01, 0x00, 0x00, 0x01, 0xff, 0x00, 0x00, 
  0x01, 0xff, 0xfe, 0x00, 0xff, 0xfe, 0xfe, 0xff, 0x01, 0x01, 0x00, 0x01, 
  0xff, 0x00, 0xfc, 0xff, 0x02, 0xfe, 0x04, 0xfe, 0xfa, 0x02, 0x03, 0x00, 
  0x01, 0x01, 0x05, 0x03, 0x04, 0x02, 0x03, 0x00, 0x01, 0x00, 0x00, 0x01, 
  0x00, 0xff, 0xff, 0xff, 0xfd, 0xfd, 0xfd, 0xfd, 0xfe, 0xfe, 0x00, 0xfe, 
  0xfc, 0xfe, 0xfc, 0xfc, 0xfb, 0xfe, 0xff, 0x01, 0xf9, 0x00, 0xff, 0xfe, 
  0xf9, 0xfe, 0x00, 0x00, 0xf4, 0x01, 0xf5, 0xfd, 0xf3, 0xff, 0xf4, 0xfe, 
  0xf4, 0xff, 0xf8, 0xff, 0xf9, 0xfe, 0xfc, 0x00, 0xfd, 0xff, 0x00, 0x00, 
  0xfd, 0x00, 0xfd, 0xff, 0xf7, 0xfd, 0xfd, 0x01, 0xf2, 0x01, 0x01, 0x01, 
  0xf5, 0x02, 0xfc, 0xfe, 0x00, 0xff, 0xfb, 0xff, 0xfc, 0xfd, 0xfd, 0xfd, 
  0xfc, 0xfe, 0xfd, 0xfd, 0xfc, 0xfd, 0xfe, 0xfe, 0xff, 0xff, 0x00, 0xff, 
  0x02, 0x00, 0x00, 0x01, 0x02, 0x01, 0x00, 0x01, 0x02, 0x00, 0x01, 0x01, 
  0xff, 0x00, 0x01, 0x01, 0xfb, 0x02, 0xfb, 0xfd, 0xff, 0xff, 0x01, 0x00, 
  0xff, 0x20, 0x04, 0xe8, 0x16, 0x29, 0xf7, 0x0b, 0x15, 0xf0, 0xfc, 0xe2, 
  0x0c, 0x0f, 0x08, 0xf8, 0xfe, 0x05, 0x03, 0x07, 0x06, 0x04, 0x01, 0x05, 
  0x00, 0x03, 0x03, 0x01, 0x01, 0x03, 0xff, 0xfd, 0xfd, 0x02, 0x01, 0xfc, 
  0x02, 0x03, 0x03, 0x03, 0x03, 0xfb, 0x01, 0x01, 0x00, 0xff, 0xfe, 0x02, 
  0xff, 0x02, 0x00, 0xfa, 0xfc, 0x03, 0x00, 0xfe, 0x00, 0x00, 0x01, 0x00, 
  0xff, 0xff, 0xff, 0x01, 0x00, 0x01, 0x00, 0x00, 0x02, 0x00, 0xff, 0xfe, 
  0x01, 0x02, 0x00, 0x01, 0x01, 0x00, 0x02, 0x02, 0x01, 0x00, 0x00, 0x02, 
  0x00, 0x03, 0x01, 0x01, 0x00, 0x03, 0x01, 0x01, 0x03, 0x04, 0x02, 0x01, 
  0x04, 0x02, 0x02, 0x01, 0x02, 0x00, 0x01, 0x01, 0x00, 0x00, 0x01, 0x00, 
  0xff, 0x00, 0xff, 0xff, 0x00, 0x01, 0xff, 0x00, 0x00, 0x00, 0xff, 0xff, 
  0x00, 0xfe, 0x00, 0x01, 0xff, 0xfe, 0xfe, 0xfc, 0xff, 0x05, 0x01, 0x01, 
  0xff, 0xfe, 0x01, 0x00, 0x01, 0x00, 0x03, 0x05, 0x02, 0x03, 0x01, 0x04, 
  0xff, 0x01, 0x01, 0xff, 0x01, 0x00, 0x00, 0xff, 0x00, 0xfb, 0xff, 0xfd, 
  0xfe, 0xfe, 0xfd, 0x01, 0xff, 0xff, 0x01, 0xfc, 0xfb, 0xfc, 0xfe, 0xfe, 
  0x00, 0xfc, 0xfe, 0xfe, 0xff, 0xfc, 0xfe, 0xfc, 0x01, 0xf8, 0xff, 0xf7, 
  0x00, 0xf1, 0xfe, 0xf6, 0xfa, 0xf7, 0xfd, 0xf8, 0x00, 0xf8, 0xfe, 0xfc, 
  0xff, 0xfe, 0xff, 0xff, 0x01, 0xfc, 0xfe, 0xff, 0xfe, 0xf7, 0xfc, 0xfd, 
  0xff, 0xf7, 0xff, 0xff, 0x01, 0xf9, 0x01, 0xfc, 0xfd, 0x01, 0xff, 0xfb, 
  0x00, 0xfb, 0xfd, 0xfd, 0xfc, 0xfb, 0xfd, 0xfe, 0xfd, 0xfd, 0xfd, 0xfe, 
  0xfd, 0xff, 0xff, 0x00, 0xff, 0x03, 0x00, 0x00, 0x01, 0x03, 0x00, 0x00, 
  0x00, 0x02, 0xff, 0x00, 0x01, 0xff, 0x00, 0x00, 0x00, 0xfd, 0x03, 0xf4, 
  0x00, 0x00, 0xfe, 0x00, 0x03, 0x01, 0x09, 0x0e, 0xe4, 0x0c, 0x43, 0xec, 
  0x0f, 0x16, 0x0a, 0x09, 0xda, 0xfe, 0xfc, 0x06, 0xfb, 0xff, 0x01, 0x06, 
  0x01, 0x09, 0x06, 0x05, 0x05, 0x03, 0xff, 0x03, 0x03, 0x01, 0x02, 0xff, 
  0x02, 0xff, 0x02, 0xff, 0xf8, 0x00, 0x04, 0x00, 0x02, 0x05, 0xfd, 0x03, 
  0x03, 0x00, 0xfe, 0x00, 0x02, 0xff, 0x01, 0xfe, 0xfe, 0xff, 0x01, 0xfe, 
  0xfa, 0xff, 0x01, 0x00, 0xff, 0x00, 0x01, 0x01, 0x01, 0x00, 0x00, 0x00, 
  0x01, 0x01, 0x00, 0x00, 0x00, 0x01, 0x01, 0xff, 0x00, 0x01, 0x00, 0x01, 
  0x00, 0x01, 0x00, 0x00, 0x03, 0x00, 0x01, 0x01, 0x03, 0x01, 0x04, 0x02, 
  0x02, 0x02, 0x04, 0x01, 0x01, 0x03, 0x03, 0x02, 0x00, 0x02, 0x00, 0x02, 
  0x02, 0x00, 0xff, 0x00, 0x01, 0x00, 0x00, 0xff, 0x00, 0x00, 0x01, 0xfe, 
  0x00, 0xff, 0x00, 0x00, 0xff, 0x00, 0xfd, 0x00, 0x01, 0x00, 0xfc, 0xff, 
  0xff, 0xfe, 0x07, 0x02, 0xff, 0xfe, 0x05, 0xf9, 0xff, 0xff, 0x04, 0x03, 
  0x07, 0xff, 0x03, 0x01, 0x03, 0x01, 0x02, 0x02, 0xff, 0x00, 0xff, 0x00, 
  0xff, 0x00, 0xfe, 0xfe, 0xfc, 0xff, 0x00, 0xff, 0x01, 0x00, 0xfe, 0x00, 
  0x00, 0xfe, 0xfe, 0xfd, 0xff, 0xfe, 0xfc, 0xfd, 0xfe, 0xfe, 0xfc, 0xfc, 
  0xfc, 0xfe, 0xfa, 0xfd, 0xfc, 0x00, 0xf0, 0xfa, 0xfa, 0xfa, 0xf6, 0xfd, 
  0xfb, 0xfc, 0xfc, 0xfd, 0xfe, 0x00, 0x00, 0xff, 0xfe, 0x00, 0xfb, 0xfd, 
  0x00, 0xff, 0xf7, 0xfc, 0xfc, 0xfd, 0xfa, 0xff, 0xfe, 0x00, 0xfc, 0xfd, 
  0xfe, 0xfc, 0x00, 0xff, 0xfb, 0x00, 0xf9, 0xfe, 0xfd, 0xfd, 0xfb, 0xfe, 
  0xfd, 0xfc, 0xfc, 0xfd, 0xfe, 0xfd, 0xff, 0xff, 0x00, 0xff, 0x02, 0x00, 
  0x00, 0x01, 0x02, 0x01, 0xff, 0x00, 0x02, 0x00, 0x00, 0x00, 0xff, 0x00, 
  0x00, 0xff, 0xfe, 0x02, 0xf1, 0x03, 0x00, 0xfe, 0xff, 0x04, 0x03, 0xed, 
  0x10, 0xef, 0xfc, 0x38, 0x04, 0x0b, 0x10, 0x13, 0x17, 0xe3, 0x01, 0xe0, 
  0x01, 0xfe, 0xfc, 0x02, 0x06, 0xfe, 0x09, 0x07, 0x09, 0x04, 0x07, 0xfe, 
  0x02, 0x05, 0x01, 0x00, 0xff, 0x02, 0xff, 0x04, 0xff, 0xfc, 0xfe, 0x01, 
  0x00, 0xfb, 0x04, 0x03, 0x03, 0x01, 0x02, 0xfd, 0x01, 0x01, 0xff, 0xff, 
  0x00, 0x01, 0xff, 0x02, 0xff, 0xfd, 0xff, 0x00, 0xfd, 0xf9, 0x01, 0x04, 
  0x01, 0x01, 0x01, 0xff, 0x01, 0x01, 0x01, 0x00, 0x00, 0x01, 0x00, 0x00, 
  0xff, 0x00, 0xff, 0x01, 0xfe, 0xfe, 0xfe, 0x02, 0x00, 0x02, 0x00, 0x03, 
  0x01, 0x03, 0x03, 0x05, 0x01, 0x05, 0x02, 0x04, 0x02, 0x02, 0x02, 0x02, 
